{
  "version": "1.0",
  "truncation": {
    "direction": "Right",
    "max_length": 256,
    "strategy": "LongestFirst",
    "stride": 0
  },
  "padding": {
    "strategy": {
      "Fixed": 256
    },
    "direction": "Right",
    "pad_to_multiple_of": null,
    "pad_id": 0,
    "pad_type_id": 0,
    "pad_token": "[PAD]"
  },
  "added_tokens": [
    {
      "id": 0,
      "content": "[PAD]",
      "single_word": false,
      "lstrip": false,
      "rstrip": false,
      "normalized": false,
      "special": true
    },
    {
      "id": 1,
      "content": "[UNK]",
      "single_word": false,
      "lstrip": false,
      "rstrip": false,
      "normalized": false,
      "special": true
    },
    {
      "id": 2,
      "content": "[CLS]",
      "single_word": false,
      "lstrip": false,
      "rstrip": false,
      "normalized": false,
      "special": true
    },
    {
      "id": 3,
      "content": "[SEP]",
      "single_word": false,
      "lstrip": false,
      "rstrip": false,
      "normalized": false,
      "special": true
    },
    {
      "id": 4,
      "content": "[MASK]",
      "single_word": false,
      "lstrip": false,
      "rstrip": false,
      "normalized": false,
      "special": true
    }
  ],
  "normalizer": {
    "type": "BertNormalizer",
    "clean_text": true,
    "handle_chinese_chars": true,
    "strip_accents": null,
    "lowercase": false
  },
  "pre_tokenizer": {
    "type": "BertPreTokenizer"
  },
  "post_processor": {
    "type": "TemplateProcessing",
    "single": [
      {
        "SpecialToken": {
          "id": "[CLS]",
          "type_id": 0
        }
      },
      {
        "Sequence": {
          "id": "A",
          "type_id": 0
        }
      },
      {
        "SpecialToken": {
          "id": "[SEP]",
          "type_id": 0
        }
      }
    ],
    "pair": [
      {
        "SpecialToken": {
          "id": "[CLS]",
          "type_id": 0
        }
      },
      {
        "Sequence": {
          "id": "A",
          "type_id": 0
        }
      },
      {
        "SpecialToken": {
          "id": "[SEP]",
          "type_id": 0
        }
      },
      {
        "Sequence": {
          "id": "B",
          "type_id": 1
        }
      },
      {
        "SpecialToken": {
          "id": "[SEP]",
          "type_id": 1
        }
      }
    ],
    "special_tokens": {
      "[CLS]": {
        "id": "[CLS]",
        "ids": [
          2
        ],
        "tokens": [
          "[CLS]"
        ]
      },
      "[SEP]": {
        "id": "[SEP]",
        "ids": [
          3
        ],
        "tokens": [
          "[SEP]"
        ]
      }
    }
  },
  "decoder": {
    "type": "WordPiece",
    "prefix": "##",
    "cleanup": true
  },
  "model": {
    "type": "WordPiece",
    "unk_token": "[UNK]",
    "continuing_subword_prefix": "##",
    "max_input_chars_per_word": 100,
    "vocab": {
      "[PAD]": 0,
      "[UNK]": 1,
      "[CLS]": 2,
      "[SEP]": 3,
      "[MASK]": 4,
      "!": 5,
      "\"": 6,
      "#": 7,
      "$": 8,
      "%": 9,
      "&": 10,
      "'": 11,
      "(": 12,
      ")": 13,
      "*": 14,
      "+": 15,
      ",": 16,
      "-": 17,
      ".": 18,
      "/": 19,
      "0": 20,
      "1": 21,
      "2": 22,
      "3": 23,
      "4": 24,
      "5": 25,
      "6": 26,
      "7": 27,
      "8": 28,
      "9": 29,
      ":": 30,
      ";": 31,
      "<": 32,
      "=": 33,
      ">": 34,
      "?": 35,
      "@": 36,
      "A": 37,
      "B": 38,
      "C": 39,
      "D": 40,
      "E": 41,
      "F": 42,
      "G": 43,
      "H": 44,
      "I": 45,
      "J": 46,
      "K": 47,
      "L": 48,
      "M": 49,
      "N": 50,
      "O": 51,
      "P": 52,
      "Q": 53,
      "R": 54,
      "S": 55,
      "T": 56,
      "U": 57,
      "V": 58,
      "W": 59,
      "X": 60,
      "Y": 61,
      "Z": 62,
      "[": 63,
      "\\": 64,
      "]": 65,
      "^": 66,
      "_": 67,
      "`": 68,
      "a": 69,
      "b": 70,
      "c": 71,
      "d": 72,
      "e": 73,
      "f": 74,
      "g": 75,
      "h": 76,
      "i": 77,
      "j": 78,
      "k": 79,
      "l": 80,
      "m": 81,
      "n": 82,
      "o": 83,
      "p": 84,
      "q": 85,
      "r": 86,
      "s": 87,
      "t": 88,
      "u": 89,
      "v": 90,
      "w": 91,
      "x": 92,
      "y": 93,
      "z": 94,
      "{": 95,
      "|": 96,
      "}": 97,
      "~": 98,
      "£": 99,
      "¤": 100,
      "§": 101,
      "«": 102,
      "®": 103,
      "°": 104,
      "±": 105,
      "²": 106,
      "³": 107,
      "´": 108,
      "·": 109,
      "¹": 110,
      "»": 111,
      "½": 112,
      "×": 113,
      "à": 114,
      "á": 115,
      "â": 116,
      "ä": 117,
      "ç": 118,
      "è": 119,
      "é": 120,
      "í": 121,
      "ó": 122,
      "ö": 123,
      "÷": 124,
      "ü": 125,
      "ā": 126,
      "ʔ": 127,
      "ʕ": 128,
      "˂": 129,
      "˃": 130,
      "ː": 131,
      "˘": 132,
      "˙": 133,
      "˚": 134,
      "˝": 135,
      "̀": 136,
      "́": 137,
      "̄": 138,
      "̆": 139,
      "̈": 140,
      "̊": 141,
      "̎": 142,
      "̐": 143,
      "̑": 144,
      "̣": 145,
      "̤": 146,
      "̥": 147,
      "̩": 148,
      "̫": 149,
      "̴": 150,
      "̵": 151,
      "̶": 152,
      "̷": 153,
      "͈": 154,
      "͡": 155,
      "΄": 156,
      "Δ": 157,
      "α": 158,
      "β": 159,
      "γ": 160,
      "δ": 161,
      "ε": 162,
      "θ": 163,
      "ι": 164,
      "κ": 165,
      "λ": 166,
      "μ": 167,
      "ν": 168,
      "ο": 169,
      "π": 170,
      "ρ": 171,
      "ς": 172,
      "σ": 173,
      "τ": 174,
      "ω": 175,
      "А": 176,
      "В": 177,
      "И": 178,
      "К": 179,
      "М": 180,
      "П": 181,
      "Р": 182,
      "С": 183,
      "а": 184,
      "б": 185,
      "в": 186,
      "г": 187,
      "д": 188,
      "е": 189,
      "ж": 190,
      "з": 191,
      "и": 192,
      "й": 193,
      "к": 194,
      "л": 195,
      "м": 196,
      "н": 197,
      "о": 198,
      "п": 199,
      "р": 200,
      "с": 201,
      "т": 202,
      "у": 203,
      "х": 204,
      "ц": 205,
      "ч": 206,
      "ш": 207,
      "ы": 208,
      "ь": 209,
      "ю": 210,
      "я": 211,
      "ا": 212,
      "ل": 213,
      "و": 214,
      "٩": 215,
      "ෆ": 216,
      "ั": 217,
      "๑": 218,
      "ღ": 219,
      "ᄀ": 220,
      "ᄂ": 221,
      "ᄃ": 222,
      "ᄉ": 223,
      "ᄋ": 224,
      "ᄒ": 225,
      "ᅡ": 226,
      "ᅵ": 227,
      "ᆞ": 228,
      "ᆡ": 229,
      "ᆢ": 230,
      "ᆫ": 231,
      "ᴀ": 232,
      "ᴇ": 233,
      "ᴏ": 234,
      "ᴗ": 235,
      "ᴬ": 236,
      "ᴱ": 237,
      "–": 238,
      "—": 239,
      "―": 240,
      "‘": 241,
      "’": 242,
      "“": 243,
      "”": 244,
      "•": 245,
      "․": 246,
      "‥": 247,
      "…": 248,
      "‧": 249,
      "′": 250,
      "″": 251,
      "※": 252,
      "‼": 253,
      "⁉": 254,
      "⁴": 255,
      "₁": 256,
      "₂": 257,
      "₩": 258,
      "€": 259,
      "⃣": 260,
      "℃": 261,
      "ℓ": 262,
      "™": 263,
      "⅓": 264,
      "⅔": 265,
      "Ⅰ": 266,
      "Ⅱ": 267,
      "Ⅲ": 268,
      "Ⅳ": 269,
      "Ⅴ": 270,
      "ⅰ": 271,
      "ⅱ": 272,
      "←": 273,
      "↑": 274,
      "→": 275,
      "↓": 276,
      "↔": 277,
      "↘": 278,
      "↙": 279,
      "⇒": 280,
      "∑": 281,
      "−": 282,
      "∗": 283,
      "∙": 284,
      "∠": 285,
      "∥": 286,
      "∼": 287,
      "≪": 288,
      "≫": 289,
      "⊙": 290,
      "⋅": 291,
      "①": 292,
      "②": 293,
      "③": 294,
      "④": 295,
      "⑤": 296,
      "⑥": 297,
      "⑦": 298,
      "⑧": 299,
      "⑨": 300,
      "⑩": 301,
      "⑪": 302,
      "⑫": 303,
      "⑬": 304,
      "⑭": 305,
      "⑴": 306,
      "⑵": 307,
      "⑶": 308,
      "⑷": 309,
      "⑸": 310,
      "⒜": 311,
      "⒝": 312,
      "ⓐ": 313,
      "ⓑ": 314,
      "ⓒ": 315,
      "ⓓ": 316,
      "─": 317,
      "━": 318,
      "│": 319,
      "┃": 320,
      "┬": 321,
      "■": 322,
      "□": 323,
      "▣": 324,
      "▪": 325,
      "▫": 326,
      "▲": 327,
      "△": 328,
      "▶": 329,
      "▷": 330,
      "▼": 331,
      "▽": 332,
      "◀": 333,
      "◆": 334,
      "◇": 335,
      "◈": 336,
      "○": 337,
      "◎": 338,
      "●": 339,
      "◞": 340,
      "◟": 341,
      "◡": 342,
      "☀": 343,
      "☁": 344,
      "★": 345,
      "☆": 346,
      "☎": 347,
      "☏": 348,
      "☑": 349,
      "☔": 350,
      "☕": 351,
      "☝": 352,
      "☞": 353,
      "☠": 354,
      "☢": 355,
      "☹": 356,
      "☺": 357,
      "♀": 358,
      "♂": 359,
      "♠": 360,
      "♡": 361,
      "♣": 362,
      "♤": 363,
      "♥": 364,
      "♦": 365,
      "♧": 366,
      "♨": 367,
      "♩": 368,
      "♪": 369,
      "♬": 370,
      "⚠": 371,
      "⚡": 372,
      "⛔": 373,
      "✅": 374,
      "✈": 375,
      "✊": 376,
      "✋": 377,
      "✌": 378,
      "✔": 379,
      "✧": 380,
      "✨": 381,
      "✳": 382,
      "✺": 383,
      "❄": 384,
      "❌": 385,
      "❎": 386,
      "❓": 387,
      "❗": 388,
      "❛": 389,
      "❣": 390,
      "❤": 391,
      "❶": 392,
      "❷": 393,
      "➡": 394,
      "➰": 395,
      "⠀": 396,
      "⫬": 397,
      "⭐": 398,
      "⭕": 399,
      "、": 400,
      "。": 401,
      "〃": 402,
      "〈": 403,
      "〉": 404,
      "《": 405,
      "》": 406,
      "「": 407,
      "」": 408,
      "『": 409,
      "』": 410,
      "【": 411,
      "】": 412,
      "〓": 413,
      "〔": 414,
      "〕": 415,
      "〜": 416,
      "〰": 417,
      "あ": 418,
      "い": 419,
      "う": 420,
      "え": 421,
      "お": 422,
      "か": 423,
      "が": 424,
      "き": 425,
      "く": 426,
      "け": 427,
      "こ": 428,
      "さ": 429,
      "し": 430,
      "す": 431,
      "そ": 432,
      "た": 433,
      "だ": 434,
      "ち": 435,
      "っ": 436,
      "つ": 437,
      "て": 438,
      "で": 439,
      "と": 440,
      "な": 441,
      "に": 442,
      "ぬ": 443,
      "の": 444,
      "は": 445,
      "ま": 446,
      "み": 447,
      "め": 448,
      "も": 449,
      "ゃ": 450,
      "や": 451,
      "よ": 452,
      "ら": 453,
      "り": 454,
      "る": 455,
      "れ": 456,
      "わ": 457,
      "を": 458,
      "ん": 459,
      "ア": 460,
      "ィ": 461,
      "イ": 462,
      "ウ": 463,
      "ェ": 464,
      "カ": 465,
      "キ": 466,
      "ク": 467,
      "グ": 468,
      "ケ": 469,
      "コ": 470,
      "シ": 471,
      "ジ": 472,
      "ス": 473,
      "ソ": 474,
      "タ": 475,
      "チ": 476,
      "ッ": 477,
      "テ": 478,
      "ト": 479,
      "ド": 480,
      "ナ": 481,
      "ニ": 482,
      "ノ": 483,
      "バ": 484,
      "ヒ": 485,
      "フ": 486,
      "ブ": 487,
      "プ": 488,
      "ポ": 489,
      "マ": 490,
      "ミ": 491,
      "ム": 492,
      "メ": 493,
      "ラ": 494,
      "リ": 495,
      "ル": 496,
      "レ": 497,
      "ロ": 498,
      "ン": 499,
      "・": 500,
      "ー": 501,
      "ㄱ": 502,
      "ㄲ": 503,
      "ㄳ": 504,
      "ㄴ": 505,
      "ㄵ": 506,
      "ㄶ": 507,
      "ㄷ": 508,
      "ㄸ": 509,
      "ㄹ": 510,
      "ㄺ": 511,
      "ㄻ": 512,
      "ㄼ": 513,
      "ㄿ": 514,
      "ㅀ": 515,
      "ㅁ": 516,
      "ㅂ": 517,
      "ㅃ": 518,
      "ㅄ": 519,
      "ㅅ": 520,
      "ㅆ": 521,
      "ㅇ": 522,
      "ㅈ": 523,
      "ㅉ": 524,
      "ㅊ": 525,
      "ㅋ": 526,
      "ㅌ": 527,
      "ㅍ": 528,
      "ㅎ": 529,
      "ㅏ": 530,
      "ㅐ": 531,
      "ㅑ": 532,
      "ㅒ": 533,
      "ㅓ": 534,
      "ㅔ": 535,
      "ㅕ": 536,
      "ㅖ": 537,
      "ㅗ": 538,
      "ㅘ": 539,
      "ㅙ": 540,
      "ㅚ": 541,
      "ㅛ": 542,
      "ㅜ": 543,
      "ㅝ": 544,
      "ㅞ": 545,
      "ㅟ": 546,
      "ㅠ": 547,
      "ㅡ": 548,
      "ㅢ": 549,
      "ㅣ": 550,
      "ㅤ": 551,
      "ㆍ": 552,
      "㈎": 553,
      "㈏": 554,
      "㈐": 555,
      "㈑": 556,
      "㈔": 557,
      "㈜": 558,
      "㉠": 559,
      "㉡": 560,
      "㉢": 561,
      "㉣": 562,
      "㉤": 563,
      "㉮": 564,
      "㉯": 565,
      "㉰": 566,
      "㉱": 567,
      "㊗": 568,
      "㎉": 569,
      "㎍": 570,
      "㎎": 571,
      "㎏": 572,
      "㎒": 573,
      "㎓": 574,
      "㎖": 575,
      "㎗": 576,
      "㎘": 577,
      "㎚": 578,
      "㎛": 579,
      "㎜": 580,
      "㎝": 581,
      "㎞": 582,
      "㎠": 583,
      "㎡": 584,
      "㎢": 585,
      "㎥": 586,
      "㎸": 587,
      "㎾": 588,
      "㎿": 589,
      "㏄": 590,
      "㏈": 591,
      "㏊": 592,
      "一": 593,
      "丁": 594,
      "七": 595,
      "丈": 596,
      "三": 597,
      "上": 598,
      "下": 599,
      "不": 600,
      "丑": 601,
      "且": 602,
      "世": 603,
      "丘": 604,
      "丙": 605,
      "丞": 606,
      "中": 607,
      "丸": 608,
      "丹": 609,
      "主": 610,
      "乃": 611,
      "久": 612,
      "之": 613,
      "乎": 614,
      "乘": 615,
      "乙": 616,
      "九": 617,
      "也": 618,
      "乾": 619,
      "亂": 620,
      "了": 621,
      "予": 622,
      "事": 623,
      "二": 624,
      "于": 625,
      "云": 626,
      "互": 627,
      "五": 628,
      "井": 629,
      "亞": 630,
      "亡": 631,
      "交": 632,
      "亥": 633,
      "亦": 634,
      "亨": 635,
      "享": 636,
      "京": 637,
      "亭": 638,
      "人": 639,
      "仁": 640,
      "今": 641,
      "介": 642,
      "仕": 643,
      "他": 644,
      "付": 645,
      "仙": 646,
      "代": 647,
      "令": 648,
      "以": 649,
      "仰": 650,
      "仲": 651,
      "件": 652,
      "任": 653,
      "企": 654,
      "伊": 655,
      "伏": 656,
      "伐": 657,
      "休": 658,
      "会": 659,
      "伯": 660,
      "似": 661,
      "但": 662,
      "位": 663,
      "低": 664,
      "住": 665,
      "佐": 666,
      "何": 667,
      "余": 668,
      "佛": 669,
      "作": 670,
      "佳": 671,
      "使": 672,
      "來": 673,
      "例": 674,
      "侍": 675,
      "供": 676,
      "依": 677,
      "侯": 678,
      "侵": 679,
      "便": 680,
      "係": 681,
      "俊": 682,
      "俗": 683,
      "保": 684,
      "信": 685,
      "修": 686,
      "倂": 687,
      "倉": 688,
      "個": 689,
      "倍": 690,
      "候": 691,
      "借": 692,
      "値": 693,
      "倫": 694,
      "倭": 695,
      "假": 696,
      "偉": 697,
      "停": 698,
      "健": 699,
      "側": 700,
      "偶": 701,
      "備": 702,
      "傭": 703,
      "傳": 704,
      "債": 705,
      "傷": 706,
      "像": 707,
      "僕": 708,
      "僞": 709,
      "僧": 710,
      "價": 711,
      "儀": 712,
      "儒": 713,
      "償": 714,
      "優": 715,
      "允": 716,
      "元": 717,
      "兄": 718,
      "充": 719,
      "兆": 720,
      "先": 721,
      "光": 722,
      "克": 723,
      "免": 724,
      "兒": 725,
      "入": 726,
      "內": 727,
      "全": 728,
      "兩": 729,
      "兪": 730,
      "八": 731,
      "公": 732,
      "六": 733,
      "共": 734,
      "兵": 735,
      "其": 736,
      "具": 737,
      "典": 738,
      "兼": 739,
      "冊": 740,
      "再": 741,
      "冠": 742,
      "冬": 743,
      "凡": 744,
      "凶": 745,
      "出": 746,
      "刀": 747,
      "分": 748,
      "切": 749,
      "刊": 750,
      "刑": 751,
      "列": 752,
      "初": 753,
      "判": 754,
      "別": 755,
      "利": 756,
      "到": 757,
      "制": 758,
      "券": 759,
      "刺": 760,
      "刻": 761,
      "則": 762,
      "前": 763,
      "剛": 764,
      "副": 765,
      "割": 766,
      "創": 767,
      "劃": 768,
      "劇": 769,
      "劉": 770,
      "劍": 771,
      "力": 772,
      "功": 773,
      "加": 774,
      "助": 775,
      "勇": 776,
      "動": 777,
      "務": 778,
      "勝": 779,
      "勞": 780,
      "勢": 781,
      "勤": 782,
      "勳": 783,
      "勸": 784,
      "勿": 785,
      "包": 786,
      "化": 787,
      "北": 788,
      "匠": 789,
      "區": 790,
      "十": 791,
      "千": 792,
      "升": 793,
      "午": 794,
      "半": 795,
      "卑": 796,
      "卒": 797,
      "協": 798,
      "南": 799,
      "博": 800,
      "占": 801,
      "卦": 802,
      "卯": 803,
      "印": 804,
      "危": 805,
      "却": 806,
      "卷": 807,
      "卽": 808,
      "卿": 809,
      "厚": 810,
      "原": 811,
      "去": 812,
      "參": 813,
      "又": 814,
      "及": 815,
      "友": 816,
      "反": 817,
      "叔": 818,
      "取": 819,
      "受": 820,
      "叛": 821,
      "叢": 822,
      "口": 823,
      "古": 824,
      "句": 825,
      "只": 826,
      "召": 827,
      "可": 828,
      "台": 829,
      "史": 830,
      "右": 831,
      "司": 832,
      "各": 833,
      "合": 834,
      "吉": 835,
      "同": 836,
      "名": 837,
      "后": 838,
      "吏": 839,
      "向": 840,
      "君": 841,
      "否": 842,
      "含": 843,
      "吳": 844,
      "吾": 845,
      "呂": 846,
      "告": 847,
      "周": 848,
      "味": 849,
      "呼": 850,
      "命": 851,
      "和": 852,
      "咸": 853,
      "哀": 854,
      "品": 855,
      "哉": 856,
      "員": 857,
      "哲": 858,
      "唐": 859,
      "唯": 860,
      "唱": 861,
      "商": 862,
      "問": 863,
      "啓": 864,
      "善": 865,
      "喜": 866,
      "喪": 867,
      "單": 868,
      "嘉": 869,
      "嘗": 870,
      "器": 871,
      "嚴": 872,
      "四": 873,
      "回": 874,
      "因": 875,
      "固": 876,
      "国": 877,
      "圈": 878,
      "國": 879,
      "圍": 880,
      "園": 881,
      "圓": 882,
      "圖": 883,
      "團": 884,
      "土": 885,
      "在": 886,
      "圭": 887,
      "地": 888,
      "址": 889,
      "均": 890,
      "坊": 891,
      "坐": 892,
      "坡": 893,
      "坤": 894,
      "型": 895,
      "城": 896,
      "域": 897,
      "執": 898,
      "基": 899,
      "堂": 900,
      "堅": 901,
      "堯": 902,
      "報": 903,
      "場": 904,
      "塔": 905,
      "境": 906,
      "墓": 907,
      "增": 908,
      "墨": 909,
      "壁": 910,
      "壇": 911,
      "壓": 912,
      "壤": 913,
      "士": 914,
      "壬": 915,
      "壯": 916,
      "壽": 917,
      "夏": 918,
      "外": 919,
      "多": 920,
      "夜": 921,
      "夢": 922,
      "大": 923,
      "天": 924,
      "太": 925,
      "夫": 926,
      "央": 927,
      "失": 928,
      "夷": 929,
      "奇": 930,
      "奈": 931,
      "奉": 932,
      "奎": 933,
      "奏": 934,
      "契": 935,
      "女": 936,
      "奴": 937,
      "好": 938,
      "如": 939,
      "妃": 940,
      "妄": 941,
      "妓": 942,
      "妙": 943,
      "妻": 944,
      "始": 945,
      "姓": 946,
      "委": 947,
      "姜": 948,
      "姬": 949,
      "姻": 950,
      "威": 951,
      "婚": 952,
      "婢": 953,
      "婦": 954,
      "媛": 955,
      "子": 956,
      "孔": 957,
      "字": 958,
      "存": 959,
      "孝": 960,
      "孟": 961,
      "季": 962,
      "孤": 963,
      "学": 964,
      "孫": 965,
      "學": 966,
      "宇": 967,
      "守": 968,
      "安": 969,
      "宋": 970,
      "完": 971,
      "宗": 972,
      "官": 973,
      "定": 974,
      "宜": 975,
      "客": 976,
      "宣": 977,
      "室": 978,
      "宮": 979,
      "宰": 980,
      "害": 981,
      "家": 982,
      "容": 983,
      "宿": 984,
      "寂": 985,
      "寃": 986,
      "寄": 987,
      "寅": 988,
      "密": 989,
      "富": 990,
      "寒": 991,
      "察": 992,
      "寡": 993,
      "實": 994,
      "寧": 995,
      "審": 996,
      "寫": 997,
      "寬": 998,
      "寶": 999,
      "寺": 1000,
      "封": 1001,
      "射": 1002,
      "將": 1003,
      "專": 1004,
      "尉": 1005,
      "尊": 1006,
      "尋": 1007,
      "對": 1008,
      "導": 1009,
      "小": 1010,
      "少": 1011,
      "尙": 1012,
      "就": 1013,
      "尹": 1014,
      "尺": 1015,
      "尼": 1016,
      "尾": 1017,
      "局": 1018,
      "居": 1019,
      "屈": 1020,
      "屋": 1021,
      "展": 1022,
      "層": 1023,
      "履": 1024,
      "屬": 1025,
      "山": 1026,
      "岐": 1027,
      "岡": 1028,
      "岩": 1029,
      "岳": 1030,
      "岸": 1031,
      "峯": 1032,
      "峰": 1033,
      "峴": 1034,
      "島": 1035,
      "崇": 1036,
      "崎": 1037,
      "崔": 1038,
      "嶺": 1039,
      "巖": 1040,
      "川": 1041,
      "州": 1042,
      "巡": 1043,
      "工": 1044,
      "左": 1045,
      "巨": 1046,
      "巫": 1047,
      "差": 1048,
      "己": 1049,
      "已": 1050,
      "巳": 1051,
      "巴": 1052,
      "市": 1053,
      "布": 1054,
      "希": 1055,
      "帝": 1056,
      "師": 1057,
      "席": 1058,
      "帳": 1059,
      "帶": 1060,
      "常": 1061,
      "幕": 1062,
      "干": 1063,
      "平": 1064,
      "年": 1065,
      "幸": 1066,
      "幹": 1067,
      "幻": 1068,
      "幼": 1069,
      "幽": 1070,
      "幾": 1071,
      "序": 1072,
      "底": 1073,
      "店": 1074,
      "庚": 1075,
      "府": 1076,
      "度": 1077,
      "座": 1078,
      "庫": 1079,
      "庭": 1080,
      "庵": 1081,
      "庶": 1082,
      "康": 1083,
      "庸": 1084,
      "廉": 1085,
      "廟": 1086,
      "廢": 1087,
      "廣": 1088,
      "廳": 1089,
      "延": 1090,
      "廷": 1091,
      "建": 1092,
      "弊": 1093,
      "式": 1094,
      "弓": 1095,
      "引": 1096,
      "弗": 1097,
      "弘": 1098,
      "弟": 1099,
      "弱": 1100,
      "張": 1101,
      "强": 1102,
      "弼": 1103,
      "彈": 1104,
      "彌": 1105,
      "形": 1106,
      "彦": 1107,
      "影": 1108,
      "役": 1109,
      "彼": 1110,
      "往": 1111,
      "征": 1112,
      "待": 1113,
      "律": 1114,
      "後": 1115,
      "徐": 1116,
      "徒": 1117,
      "得": 1118,
      "從": 1119,
      "御": 1120,
      "復": 1121,
      "微": 1122,
      "徵": 1123,
      "德": 1124,
      "心": 1125,
      "必": 1126,
      "忌": 1127,
      "忍": 1128,
      "志": 1129,
      "忘": 1130,
      "忠": 1131,
      "念": 1132,
      "怒": 1133,
      "思": 1134,
      "怠": 1135,
      "急": 1136,
      "性": 1137,
      "怨": 1138,
      "怪": 1139,
      "恐": 1140,
      "恒": 1141,
      "恨": 1142,
      "恩": 1143,
      "恭": 1144,
      "息": 1145,
      "悟": 1146,
      "患": 1147,
      "悲": 1148,
      "情": 1149,
      "惑": 1150,
      "惟": 1151,
      "惠": 1152,
      "惡": 1153,
      "惱": 1154,
      "想": 1155,
      "意": 1156,
      "愚": 1157,
      "愛": 1158,
      "感": 1159,
      "愼": 1160,
      "慈": 1161,
      "態": 1162,
      "慕": 1163,
      "慣": 1164,
      "慧": 1165,
      "慮": 1166,
      "慶": 1167,
      "憂": 1168,
      "憲": 1169,
      "應": 1170,
      "懲": 1171,
      "懷": 1172,
      "戊": 1173,
      "戌": 1174,
      "成": 1175,
      "我": 1176,
      "戒": 1177,
      "或": 1178,
      "戰": 1179,
      "戱": 1180,
      "戶": 1181,
      "房": 1182,
      "所": 1183,
      "手": 1184,
      "才": 1185,
      "打": 1186,
      "扶": 1187,
      "批": 1188,
      "承": 1189,
      "技": 1190,
      "投": 1191,
      "抗": 1192,
      "折": 1193,
      "抵": 1194,
      "押": 1195,
      "拒": 1196,
      "拘": 1197,
      "招": 1198,
      "拜": 1199,
      "括": 1200,
      "持": 1201,
      "指": 1202,
      "振": 1203,
      "捕": 1204,
      "授": 1205,
      "掌": 1206,
      "排": 1207,
      "採": 1208,
      "接": 1209,
      "控": 1210,
      "推": 1211,
      "措": 1212,
      "提": 1213,
      "揚": 1214,
      "換": 1215,
      "揭": 1216,
      "援": 1217,
      "損": 1218,
      "摩": 1219,
      "撫": 1220,
      "撰": 1221,
      "擇": 1222,
      "擊": 1223,
      "操": 1224,
      "擔": 1225,
      "據": 1226,
      "擧": 1227,
      "擬": 1228,
      "支": 1229,
      "收": 1230,
      "改": 1231,
      "攻": 1232,
      "放": 1233,
      "政": 1234,
      "故": 1235,
      "效": 1236,
      "敍": 1237,
      "敎": 1238,
      "敏": 1239,
      "救": 1240,
      "敗": 1241,
      "敢": 1242,
      "散": 1243,
      "敦": 1244,
      "敬": 1245,
      "整": 1246,
      "敵": 1247,
      "數": 1248,
      "文": 1249,
      "斗": 1250,
      "料": 1251,
      "斥": 1252,
      "斯": 1253,
      "新": 1254,
      "斷": 1255,
      "方": 1256,
      "於": 1257,
      "施": 1258,
      "旅": 1259,
      "族": 1260,
      "旗": 1261,
      "旣": 1262,
      "日": 1263,
      "旨": 1264,
      "早": 1265,
      "昇": 1266,
      "昌": 1267,
      "明": 1268,
      "易": 1269,
      "昔": 1270,
      "星": 1271,
      "映": 1272,
      "春": 1273,
      "昭": 1274,
      "是": 1275,
      "時": 1276,
      "晉": 1277,
      "晋": 1278,
      "晩": 1279,
      "普": 1280,
      "景": 1281,
      "智": 1282,
      "暗": 1283,
      "暴": 1284,
      "曆": 1285,
      "曉": 1286,
      "曰": 1287,
      "曲": 1288,
      "更": 1289,
      "書": 1290,
      "曹": 1291,
      "曺": 1292,
      "曾": 1293,
      "最": 1294,
      "會": 1295,
      "月": 1296,
      "有": 1297,
      "服": 1298,
      "朔": 1299,
      "望": 1300,
      "朝": 1301,
      "期": 1302,
      "木": 1303,
      "未": 1304,
      "末": 1305,
      "本": 1306,
      "朱": 1307,
      "朴": 1308,
      "李": 1309,
      "材": 1310,
      "村": 1311,
      "杜": 1312,
      "束": 1313,
      "東": 1314,
      "松": 1315,
      "板": 1316,
      "林": 1317,
      "果": 1318,
      "枝": 1319,
      "某": 1320,
      "染": 1321,
      "柱": 1322,
      "柳": 1323,
      "査": 1324,
      "校": 1325,
      "株": 1326,
      "核": 1327,
      "根": 1328,
      "格": 1329,
      "桂": 1330,
      "桃": 1331,
      "案": 1332,
      "桓": 1333,
      "梁": 1334,
      "梅": 1335,
      "條": 1336,
      "棄": 1337,
      "森": 1338,
      "植": 1339,
      "楊": 1340,
      "楚": 1341,
      "業": 1342,
      "極": 1343,
      "榮": 1344,
      "構": 1345,
      "槪": 1346,
      "樂": 1347,
      "樓": 1348,
      "標": 1349,
      "樞": 1350,
      "模": 1351,
      "樣": 1352,
      "樹": 1353,
      "橋": 1354,
      "機": 1355,
      "橫": 1356,
      "檀": 1357,
      "檢": 1358,
      "權": 1359,
      "次": 1360,
      "欲": 1361,
      "欺": 1362,
      "欽": 1363,
      "款": 1364,
      "歌": 1365,
      "歐": 1366,
      "止": 1367,
      "正": 1368,
      "此": 1369,
      "步": 1370,
      "武": 1371,
      "歲": 1372,
      "歷": 1373,
      "歸": 1374,
      "死": 1375,
      "殊": 1376,
      "殘": 1377,
      "段": 1378,
      "殷": 1379,
      "殺": 1380,
      "殿": 1381,
      "毅": 1382,
      "母": 1383,
      "每": 1384,
      "毒": 1385,
      "比": 1386,
      "毛": 1387,
      "氏": 1388,
      "民": 1389,
      "氣": 1390,
      "水": 1391,
      "永": 1392,
      "求": 1393,
      "汝": 1394,
      "江": 1395,
      "池": 1396,
      "決": 1397,
      "沈": 1398,
      "沒": 1399,
      "沙": 1400,
      "河": 1401,
      "油": 1402,
      "治": 1403,
      "況": 1404,
      "泉": 1405,
      "法": 1406,
      "波": 1407,
      "注": 1408,
      "泰": 1409,
      "泳": 1410,
      "洋": 1411,
      "洙": 1412,
      "洛": 1413,
      "洞": 1414,
      "津": 1415,
      "洪": 1416,
      "洲": 1417,
      "活": 1418,
      "派": 1419,
      "流": 1420,
      "浦": 1421,
      "浩": 1422,
      "浪": 1423,
      "浮": 1424,
      "海": 1425,
      "消": 1426,
      "涉": 1427,
      "淑": 1428,
      "淨": 1429,
      "淫": 1430,
      "淮": 1431,
      "深": 1432,
      "淳": 1433,
      "淵": 1434,
      "混": 1435,
      "淸": 1436,
      "減": 1437,
      "渡": 1438,
      "測": 1439,
      "港": 1440,
      "湖": 1441,
      "湯": 1442,
      "源": 1443,
      "準": 1444,
      "溪": 1445,
      "溫": 1446,
      "滅": 1447,
      "滿": 1448,
      "漁": 1449,
      "演": 1450,
      "漢": 1451,
      "漸": 1452,
      "潤": 1453,
      "潮": 1454,
      "澤": 1455,
      "濟": 1456,
      "灣": 1457,
      "火": 1458,
      "災": 1459,
      "炳": 1460,
      "烈": 1461,
      "烏": 1462,
      "焉": 1463,
      "無": 1464,
      "然": 1465,
      "煥": 1466,
      "照": 1467,
      "煩": 1468,
      "熊": 1469,
      "熙": 1470,
      "熟": 1471,
      "熱": 1472,
      "燈": 1473,
      "燕": 1474,
      "營": 1475,
      "燮": 1476,
      "爭": 1477,
      "爲": 1478,
      "父": 1479,
      "爾": 1480,
      "片": 1481,
      "版": 1482,
      "牛": 1483,
      "牧": 1484,
      "物": 1485,
      "特": 1486,
      "犬": 1487,
      "犯": 1488,
      "狀": 1489,
      "狂": 1490,
      "猶": 1491,
      "獄": 1492,
      "獨": 1493,
      "獸": 1494,
      "獻": 1495,
      "玄": 1496,
      "率": 1497,
      "玉": 1498,
      "王": 1499,
      "珍": 1500,
      "珠": 1501,
      "班": 1502,
      "現": 1503,
      "球": 1504,
      "理": 1505,
      "琴": 1506,
      "瑕": 1507,
      "瑞": 1508,
      "環": 1509,
      "甘": 1510,
      "甚": 1511,
      "生": 1512,
      "産": 1513,
      "用": 1514,
      "甫": 1515,
      "田": 1516,
      "由": 1517,
      "甲": 1518,
      "申": 1519,
      "男": 1520,
      "町": 1521,
      "界": 1522,
      "留": 1523,
      "略": 1524,
      "番": 1525,
      "異": 1526,
      "畵": 1527,
      "當": 1528,
      "疏": 1529,
      "疑": 1530,
      "疵": 1531,
      "疾": 1532,
      "病": 1533,
      "症": 1534,
      "痛": 1535,
      "癸": 1536,
      "登": 1537,
      "發": 1538,
      "白": 1539,
      "百": 1540,
      "的": 1541,
      "皆": 1542,
      "皇": 1543,
      "皮": 1544,
      "益": 1545,
      "盛": 1546,
      "盜": 1547,
      "盟": 1548,
      "盡": 1549,
      "監": 1550,
      "盤": 1551,
      "盧": 1552,
      "目": 1553,
      "直": 1554,
      "相": 1555,
      "省": 1556,
      "看": 1557,
      "眞": 1558,
      "眼": 1559,
      "着": 1560,
      "督": 1561,
      "矣": 1562,
      "知": 1563,
      "短": 1564,
      "石": 1565,
      "破": 1566,
      "硏": 1567,
      "碑": 1568,
      "碧": 1569,
      "確": 1570,
      "磁": 1571,
      "示": 1572,
      "社": 1573,
      "祀": 1574,
      "祐": 1575,
      "祖": 1576,
      "祝": 1577,
      "神": 1578,
      "祠": 1579,
      "祥": 1580,
      "票": 1581,
      "祭": 1582,
      "祿": 1583,
      "禁": 1584,
      "禍": 1585,
      "福": 1586,
      "禪": 1587,
      "禮": 1588,
      "禹": 1589,
      "秀": 1590,
      "私": 1591,
      "秉": 1592,
      "秋": 1593,
      "科": 1594,
      "秘": 1595,
      "租": 1596,
      "秦": 1597,
      "秩": 1598,
      "移": 1599,
      "稅": 1600,
      "程": 1601,
      "種": 1602,
      "稱": 1603,
      "稷": 1604,
      "稿": 1605,
      "穀": 1606,
      "穆": 1607,
      "積": 1608,
      "究": 1609,
      "空": 1610,
      "窮": 1611,
      "立": 1612,
      "章": 1613,
      "童": 1614,
      "端": 1615,
      "競": 1616,
      "竹": 1617,
      "笑": 1618,
      "符": 1619,
      "第": 1620,
      "筆": 1621,
      "等": 1622,
      "答": 1623,
      "策": 1624,
      "箕": 1625,
      "算": 1626,
      "管": 1627,
      "節": 1628,
      "範": 1629,
      "篇": 1630,
      "築": 1631,
      "簡": 1632,
      "簿": 1633,
      "籍": 1634,
      "米": 1635,
      "精": 1636,
      "系": 1637,
      "紀": 1638,
      "約": 1639,
      "紅": 1640,
      "納": 1641,
      "純": 1642,
      "紙": 1643,
      "級": 1644,
      "素": 1645,
      "紫": 1646,
      "細": 1647,
      "終": 1648,
      "組": 1649,
      "結": 1650,
      "給": 1651,
      "統": 1652,
      "絶": 1653,
      "經": 1654,
      "綜": 1655,
      "綠": 1656,
      "維": 1657,
      "綱": 1658,
      "網": 1659,
      "緊": 1660,
      "線": 1661,
      "緣": 1662,
      "編": 1663,
      "縣": 1664,
      "總": 1665,
      "織": 1666,
      "繼": 1667,
      "續": 1668,
      "缺": 1669,
      "罪": 1670,
      "置": 1671,
      "罰": 1672,
      "署": 1673,
      "羅": 1674,
      "羊": 1675,
      "美": 1676,
      "群": 1677,
      "義": 1678,
      "羽": 1679,
      "翁": 1680,
      "習": 1681,
      "翰": 1682,
      "翼": 1683,
      "老": 1684,
      "考": 1685,
      "者": 1686,
      "而": 1687,
      "耕": 1688,
      "耳": 1689,
      "耶": 1690,
      "聖": 1691,
      "聞": 1692,
      "聯": 1693,
      "聲": 1694,
      "職": 1695,
      "聽": 1696,
      "肅": 1697,
      "肉": 1698,
      "肯": 1699,
      "育": 1700,
      "背": 1701,
      "胎": 1702,
      "胡": 1703,
      "能": 1704,
      "脈": 1705,
      "脫": 1706,
      "腹": 1707,
      "臣": 1708,
      "臨": 1709,
      "自": 1710,
      "至": 1711,
      "致": 1712,
      "臺": 1713,
      "與": 1714,
      "興": 1715,
      "舊": 1716,
      "舍": 1717,
      "舜": 1718,
      "舞": 1719,
      "舟": 1720,
      "航": 1721,
      "般": 1722,
      "舶": 1723,
      "船": 1724,
      "良": 1725,
      "色": 1726,
      "芝": 1727,
      "花": 1728,
      "芳": 1729,
      "苑": 1730,
      "若": 1731,
      "苦": 1732,
      "英": 1733,
      "茂": 1734,
      "茶": 1735,
      "草": 1736,
      "荷": 1737,
      "莊": 1738,
      "莫": 1739,
      "菩": 1740,
      "華": 1741,
      "萬": 1742,
      "落": 1743,
      "葉": 1744,
      "著": 1745,
      "葛": 1746,
      "葬": 1747,
      "蒙": 1748,
      "蓋": 1749,
      "蓮": 1750,
      "蔡": 1751,
      "薄": 1752,
      "薩": 1753,
      "藏": 1754,
      "藝": 1755,
      "藤": 1756,
      "藥": 1757,
      "藩": 1758,
      "蘇": 1759,
      "蘭": 1760,
      "虎": 1761,
      "處": 1762,
      "虛": 1763,
      "虞": 1764,
      "號": 1765,
      "融": 1766,
      "血": 1767,
      "衆": 1768,
      "行": 1769,
      "衍": 1770,
      "術": 1771,
      "街": 1772,
      "衛": 1773,
      "衡": 1774,
      "衣": 1775,
      "表": 1776,
      "衰": 1777,
      "被": 1778,
      "裁": 1779,
      "裕": 1780,
      "補": 1781,
      "裝": 1782,
      "裵": 1783,
      "製": 1784,
      "複": 1785,
      "襄": 1786,
      "西": 1787,
      "要": 1788,
      "見": 1789,
      "規": 1790,
      "視": 1791,
      "親": 1792,
      "覺": 1793,
      "覽": 1794,
      "觀": 1795,
      "角": 1796,
      "解": 1797,
      "觸": 1798,
      "言": 1799,
      "計": 1800,
      "討": 1801,
      "訓": 1802,
      "託": 1803,
      "記": 1804,
      "訟": 1805,
      "訥": 1806,
      "訪": 1807,
      "設": 1808,
      "許": 1809,
      "訴": 1810,
      "註": 1811,
      "詐": 1812,
      "評": 1813,
      "詞": 1814,
      "試": 1815,
      "詩": 1816,
      "話": 1817,
      "誌": 1818,
      "認": 1819,
      "誘": 1820,
      "語": 1821,
      "誠": 1822,
      "誤": 1823,
      "說": 1824,
      "課": 1825,
      "調": 1826,
      "談": 1827,
      "請": 1828,
      "論": 1829,
      "諫": 1830,
      "諸": 1831,
      "諾": 1832,
      "謀": 1833,
      "謂": 1834,
      "謙": 1835,
      "講": 1836,
      "謝": 1837,
      "證": 1838,
      "識": 1839,
      "譜": 1840,
      "警": 1841,
      "譯": 1842,
      "議": 1843,
      "護": 1844,
      "讀": 1845,
      "變": 1846,
      "讓": 1847,
      "谷": 1848,
      "豆": 1849,
      "豈": 1850,
      "豊": 1851,
      "象": 1852,
      "豪": 1853,
      "豫": 1854,
      "貞": 1855,
      "負": 1856,
      "財": 1857,
      "貢": 1858,
      "貧": 1859,
      "貨": 1860,
      "販": 1861,
      "貪": 1862,
      "貫": 1863,
      "責": 1864,
      "貴": 1865,
      "買": 1866,
      "貸": 1867,
      "費": 1868,
      "貿": 1869,
      "賀": 1870,
      "賃": 1871,
      "資": 1872,
      "賈": 1873,
      "賊": 1874,
      "賓": 1875,
      "賜": 1876,
      "賞": 1877,
      "賠": 1878,
      "賢": 1879,
      "賣": 1880,
      "賤": 1881,
      "賦": 1882,
      "質": 1883,
      "賴": 1884,
      "贈": 1885,
      "贊": 1886,
      "赤": 1887,
      "走": 1888,
      "起": 1889,
      "超": 1890,
      "越": 1891,
      "趙": 1892,
      "足": 1893,
      "路": 1894,
      "蹂": 1895,
      "身": 1896,
      "車": 1897,
      "軍": 1898,
      "軒": 1899,
      "載": 1900,
      "輔": 1901,
      "輕": 1902,
      "輪": 1903,
      "輯": 1904,
      "輸": 1905,
      "輿": 1906,
      "轄": 1907,
      "轉": 1908,
      "辛": 1909,
      "辨": 1910,
      "辭": 1911,
      "辯": 1912,
      "辰": 1913,
      "農": 1914,
      "迎": 1915,
      "近": 1916,
      "返": 1917,
      "述": 1918,
      "追": 1919,
      "退": 1920,
      "送": 1921,
      "逆": 1922,
      "途": 1923,
      "通": 1924,
      "速": 1925,
      "造": 1926,
      "連": 1927,
      "進": 1928,
      "逸": 1929,
      "遂": 1930,
      "遇": 1931,
      "遊": 1932,
      "運": 1933,
      "過": 1934,
      "道": 1935,
      "達": 1936,
      "違": 1937,
      "遠": 1938,
      "遡": 1939,
      "遣": 1940,
      "適": 1941,
      "遲": 1942,
      "遷": 1943,
      "選": 1944,
      "遺": 1945,
      "遼": 1946,
      "避": 1947,
      "還": 1948,
      "邊": 1949,
      "邑": 1950,
      "那": 1951,
      "邦": 1952,
      "邪": 1953,
      "邱": 1954,
      "郎": 1955,
      "郞": 1956,
      "郡": 1957,
      "部": 1958,
      "郭": 1959,
      "都": 1960,
      "鄕": 1961,
      "鄭": 1962,
      "酉": 1963,
      "配": 1964,
      "酒": 1965,
      "醫": 1966,
      "釋": 1967,
      "里": 1968,
      "重": 1969,
      "野": 1970,
      "量": 1971,
      "金": 1972,
      "釜": 1973,
      "針": 1974,
      "鉉": 1975,
      "銀": 1976,
      "銅": 1977,
      "銘": 1978,
      "錄": 1979,
      "錢": 1980,
      "錦": 1981,
      "錫": 1982,
      "錯": 1983,
      "鍾": 1984,
      "鎬": 1985,
      "鎭": 1986,
      "鏡": 1987,
      "鐘": 1988,
      "鐵": 1989,
      "鑑": 1990,
      "鑛": 1991,
      "長": 1992,
      "門": 1993,
      "開": 1994,
      "閑": 1995,
      "間": 1996,
      "閔": 1997,
      "閣": 1998,
      "闕": 1999,
      "關": 2000,
      "阪": 2001,
      "防": 2002,
      "阿": 2003,
      "陀": 2004,
      "附": 2005,
      "降": 2006,
      "限": 2007,
      "院": 2008,
      "陣": 2009,
      "除": 2010,
      "陰": 2011,
      "陳": 2012,
      "陵": 2013,
      "陶": 2014,
      "陸": 2015,
      "陽": 2016,
      "隆": 2017,
      "隊": 2018,
      "階": 2019,
      "際": 2020,
      "障": 2021,
      "隨": 2022,
      "險": 2023,
      "隱": 2024,
      "雄": 2025,
      "雅": 2026,
      "集": 2027,
      "雖": 2028,
      "雙": 2029,
      "雜": 2030,
      "離": 2031,
      "難": 2032,
      "雨": 2033,
      "雪": 2034,
      "雲": 2035,
      "電": 2036,
      "需": 2037,
      "震": 2038,
      "露": 2039,
      "靈": 2040,
      "靑": 2041,
      "靖": 2042,
      "靜": 2043,
      "非": 2044,
      "面": 2045,
      "革": 2046,
      "韓": 2047,
      "音": 2048,
      "韻": 2049,
      "頂": 2050,
      "項": 2051,
      "順": 2052,
      "須": 2053,
      "頌": 2054,
      "領": 2055,
      "頭": 2056,
      "題": 2057,
      "額": 2058,
      "顔": 2059,
      "願": 2060,
      "類": 2061,
      "顧": 2062,
      "顯": 2063,
      "風": 2064,
      "飛": 2065,
      "食": 2066,
      "飮": 2067,
      "養": 2068,
      "餘": 2069,
      "館": 2070,
      "首": 2071,
      "香": 2072,
      "馬": 2073,
      "駐": 2074,
      "騎": 2075,
      "驗": 2076,
      "驛": 2077,
      "骨": 2078,
      "體": 2079,
      "高": 2080,
      "鬪": 2081,
      "鬼": 2082,
      "魂": 2083,
      "魏": 2084,
      "魔": 2085,
      "魚": 2086,
      "魯": 2087,
      "鮮": 2088,
      "鳥": 2089,
      "鳳": 2090,
      "鳴": 2091,
      "鴻": 2092,
      "鶴": 2093,
      "鷄": 2094,
      "鹽": 2095,
      "鹿": 2096,
      "麗": 2097,
      "麟": 2098,
      "麻": 2099,
      "黃": 2100,
      "黑": 2101,
      "默": 2102,
      "點": 2103,
      "黨": 2104,
      "鼎": 2105,
      "鼓": 2106,
      "齊": 2107,
      "齋": 2108,
      "齒": 2109,
      "齡": 2110,
      "龍": 2111,
      "龜": 2112,
      "꙼": 2113,
      "가": 2114,
      "각": 2115,
      "갂": 2116,
      "간": 2117,
      "갇": 2118,
      "갈": 2119,
      "갉": 2120,
      "감": 2121,
      "갑": 2122,
      "값": 2123,
      "갓": 2124,
      "갔": 2125,
      "강": 2126,
      "갖": 2127,
      "갗": 2128,
      "갘": 2129,
      "같": 2130,
      "갚": 2131,
      "갛": 2132,
      "개": 2133,
      "객": 2134,
      "갠": 2135,
      "갤": 2136,
      "갬": 2137,
      "갭": 2138,
      "갯": 2139,
      "갰": 2140,
      "갱": 2141,
      "갸": 2142,
      "갹": 2143,
      "갼": 2144,
      "걀": 2145,
      "걍": 2146,
      "걑": 2147,
      "걔": 2148,
      "걘": 2149,
      "걩": 2150,
      "거": 2151,
      "걱": 2152,
      "건": 2153,
      "걷": 2154,
      "걸": 2155,
      "검": 2156,
      "겁": 2157,
      "것": 2158,
      "겄": 2159,
      "겅": 2160,
      "겆": 2161,
      "겈": 2162,
      "겉": 2163,
      "겊": 2164,
      "겋": 2165,
      "게": 2166,
      "겍": 2167,
      "겐": 2168,
      "겔": 2169,
      "겜": 2170,
      "겝": 2171,
      "겟": 2172,
      "겠": 2173,
      "겡": 2174,
      "겤": 2175,
      "겧": 2176,
      "겨": 2177,
      "격": 2178,
      "겪": 2179,
      "견": 2180,
      "결": 2181,
      "겸": 2182,
      "겹": 2183,
      "겻": 2184,
      "겼": 2185,
      "경": 2186,
      "곀": 2187,
      "곁": 2188,
      "계": 2189,
      "곈": 2190,
      "곗": 2191,
      "곘": 2192,
      "고": 2193,
      "곡": 2194,
      "곤": 2195,
      "곧": 2196,
      "골": 2197,
      "곪": 2198,
      "곬": 2199,
      "곯": 2200,
      "곰": 2201,
      "곱": 2202,
      "곳": 2203,
      "공": 2204,
      "곶": 2205,
      "곸": 2206,
      "곺": 2207,
      "곻": 2208,
      "과": 2209,
      "곽": 2210,
      "관": 2211,
      "괄": 2212,
      "괌": 2213,
      "광": 2214,
      "괘": 2215,
      "괜": 2216,
      "괞": 2217,
      "괨": 2218,
      "괭": 2219,
      "괴": 2220,
      "괸": 2221,
      "굉": 2222,
      "교": 2223,
      "굔": 2224,
      "굣": 2225,
      "굥": 2226,
      "구": 2227,
      "국": 2228,
      "군": 2229,
      "굳": 2230,
      "굴": 2231,
      "굵": 2232,
      "굶": 2233,
      "굻": 2234,
      "굼": 2235,
      "굽": 2236,
      "굿": 2237,
      "궁": 2238,
      "궂": 2239,
      "궃": 2240,
      "궄": 2241,
      "궈": 2242,
      "권": 2243,
      "궐": 2244,
      "궜": 2245,
      "궤": 2246,
      "궹": 2247,
      "귀": 2248,
      "귁": 2249,
      "귄": 2250,
      "귈": 2251,
      "귐": 2252,
      "귓": 2253,
      "규": 2254,
      "귝": 2255,
      "균": 2256,
      "귣": 2257,
      "귤": 2258,
      "귯": 2259,
      "그": 2260,
      "극": 2261,
      "근": 2262,
      "귿": 2263,
      "글": 2264,
      "긁": 2265,
      "금": 2266,
      "급": 2267,
      "긋": 2268,
      "긍": 2269,
      "긎": 2270,
      "긑": 2271,
      "긔": 2272,
      "긕": 2273,
      "긧": 2274,
      "기": 2275,
      "긱": 2276,
      "긴": 2277,
      "긷": 2278,
      "길": 2279,
      "긿": 2280,
      "김": 2281,
      "깁": 2282,
      "깃": 2283,
      "깄": 2284,
      "깅": 2285,
      "깆": 2286,
      "깈": 2287,
      "깉": 2288,
      "깊": 2289,
      "까": 2290,
      "깍": 2291,
      "깎": 2292,
      "깐": 2293,
      "깔": 2294,
      "깜": 2295,
      "깝": 2296,
      "깞": 2297,
      "깟": 2298,
      "깠": 2299,
      "깡": 2300,
      "깢": 2301,
      "깤": 2302,
      "깥": 2303,
      "깨": 2304,
      "깩": 2305,
      "깬": 2306,
      "깰": 2307,
      "깸": 2308,
      "깻": 2309,
      "깼": 2310,
      "깽": 2311,
      "꺄": 2312,
      "꺅": 2313,
      "꺠": 2314,
      "꺼": 2315,
      "꺽": 2316,
      "꺾": 2317,
      "껀": 2318,
      "껄": 2319,
      "껌": 2320,
      "껍": 2321,
      "껏": 2322,
      "껐": 2323,
      "껑": 2324,
      "께": 2325,
      "껜": 2326,
      "껫": 2327,
      "껭": 2328,
      "껴": 2329,
      "꼇": 2330,
      "꼈": 2331,
      "꼍": 2332,
      "꼐": 2333,
      "꼬": 2334,
      "꼭": 2335,
      "꼰": 2336,
      "꼴": 2337,
      "꼼": 2338,
      "꼽": 2339,
      "꼿": 2340,
      "꽁": 2341,
      "꽂": 2342,
      "꽃": 2343,
      "꽈": 2344,
      "꽉": 2345,
      "꽌": 2346,
      "꽐": 2347,
      "꽝": 2348,
      "꽤": 2349,
      "꽥": 2350,
      "꽹": 2351,
      "꾀": 2352,
      "꾐": 2353,
      "꾜": 2354,
      "꾸": 2355,
      "꾹": 2356,
      "꾼": 2357,
      "꾿": 2358,
      "꿀": 2359,
      "꿇": 2360,
      "꿈": 2361,
      "꿉": 2362,
      "꿋": 2363,
      "꿍": 2364,
      "꿎": 2365,
      "꿏": 2366,
      "꿔": 2367,
      "꿘": 2368,
      "꿜": 2369,
      "꿧": 2370,
      "꿨": 2371,
      "꿩": 2372,
      "꿰": 2373,
      "꿴": 2374,
      "뀌": 2375,
      "뀐": 2376,
      "뀔": 2377,
      "뀜": 2378,
      "뀝": 2379,
      "뀨": 2380,
      "끄": 2381,
      "끅": 2382,
      "끈": 2383,
      "끊": 2384,
      "끋": 2385,
      "끌": 2386,
      "끓": 2387,
      "끔": 2388,
      "끕": 2389,
      "끗": 2390,
      "끙": 2391,
      "끝": 2392,
      "끠": 2393,
      "끼": 2394,
      "끽": 2395,
      "낀": 2396,
      "낄": 2397,
      "낌": 2398,
      "낍": 2399,
      "낏": 2400,
      "낑": 2401,
      "나": 2402,
      "낙": 2403,
      "낚": 2404,
      "난": 2405,
      "낟": 2406,
      "날": 2407,
      "낡": 2408,
      "남": 2409,
      "납": 2410,
      "낫": 2411,
      "났": 2412,
      "낭": 2413,
      "낮": 2414,
      "낯": 2415,
      "낰": 2416,
      "낱": 2417,
      "낳": 2418,
      "내": 2419,
      "낵": 2420,
      "낸": 2421,
      "낼": 2422,
      "냄": 2423,
      "냅": 2424,
      "냇": 2425,
      "냈": 2426,
      "냉": 2427,
      "냐": 2428,
      "냑": 2429,
      "냔": 2430,
      "냘": 2431,
      "냠": 2432,
      "냣": 2433,
      "냥": 2434,
      "냨": 2435,
      "냬": 2436,
      "너": 2437,
      "넉": 2438,
      "넋": 2439,
      "넌": 2440,
      "널": 2441,
      "넒": 2442,
      "넓": 2443,
      "넖": 2444,
      "넘": 2445,
      "넙": 2446,
      "넛": 2447,
      "넜": 2448,
      "넝": 2449,
      "넣": 2450,
      "네": 2451,
      "넥": 2452,
      "넨": 2453,
      "넫": 2454,
      "넬": 2455,
      "넴": 2456,
      "넵": 2457,
      "넷": 2458,
      "넸": 2459,
      "넹": 2460,
      "넼": 2461,
      "녀": 2462,
      "녁": 2463,
      "년": 2464,
      "녈": 2465,
      "념": 2466,
      "녓": 2467,
      "녔": 2468,
      "녕": 2469,
      "녘": 2470,
      "녜": 2471,
      "노": 2472,
      "녹": 2473,
      "논": 2474,
      "놀": 2475,
      "놈": 2476,
      "놉": 2477,
      "놋": 2478,
      "농": 2479,
      "놐": 2480,
      "높": 2481,
      "놓": 2482,
      "놔": 2483,
      "놧": 2484,
      "놨": 2485,
      "놯": 2486,
      "놰": 2487,
      "뇌": 2488,
      "뇨": 2489,
      "뇬": 2490,
      "뇰": 2491,
      "뇸": 2492,
      "뇽": 2493,
      "누": 2494,
      "눅": 2495,
      "눈": 2496,
      "눌": 2497,
      "눔": 2498,
      "눕": 2499,
      "눗": 2500,
      "눙": 2501,
      "눞": 2502,
      "눟": 2503,
      "눠": 2504,
      "눴": 2505,
      "눼": 2506,
      "뉘": 2507,
      "뉜": 2508,
      "뉠": 2509,
      "뉨": 2510,
      "뉩": 2511,
      "뉴": 2512,
      "뉸": 2513,
      "늄": 2514,
      "늉": 2515,
      "느": 2516,
      "늑": 2517,
      "는": 2518,
      "늕": 2519,
      "늗": 2520,
      "늘": 2521,
      "늙": 2522,
      "늠": 2523,
      "늡": 2524,
      "늣": 2525,
      "능": 2526,
      "늦": 2527,
      "늧": 2528,
      "늨": 2529,
      "늪": 2530,
      "늫": 2531,
      "늬": 2532,
      "니": 2533,
      "닉": 2534,
      "닌": 2535,
      "닏": 2536,
      "닐": 2537,
      "님": 2538,
      "닙": 2539,
      "닛": 2540,
      "닜": 2541,
      "닝": 2542,
      "닞": 2543,
      "닠": 2544,
      "닢": 2545,
      "다": 2546,
      "닥": 2547,
      "닦": 2548,
      "단": 2549,
      "닫": 2550,
      "달": 2551,
      "닭": 2552,
      "닮": 2553,
      "닯": 2554,
      "닳": 2555,
      "담": 2556,
      "답": 2557,
      "닶": 2558,
      "닷": 2559,
      "당": 2560,
      "닺": 2561,
      "닻": 2562,
      "닼": 2563,
      "닽": 2564,
      "닿": 2565,
      "대": 2566,
      "댁": 2567,
      "댄": 2568,
      "댈": 2569,
      "댐": 2570,
      "댑": 2571,
      "댓": 2572,
      "댔": 2573,
      "댕": 2574,
      "댘": 2575,
      "댜": 2576,
      "댱": 2577,
      "댸": 2578,
      "더": 2579,
      "덕": 2580,
      "덖": 2581,
      "던": 2582,
      "덛": 2583,
      "덜": 2584,
      "덟": 2585,
      "덤": 2586,
      "덥": 2587,
      "덧": 2588,
      "덩": 2589,
      "덪": 2590,
      "덫": 2591,
      "덮": 2592,
      "덯": 2593,
      "데": 2594,
      "덱": 2595,
      "덴": 2596,
      "델": 2597,
      "뎀": 2598,
      "뎁": 2599,
      "뎃": 2600,
      "뎄": 2601,
      "뎅": 2602,
      "뎈": 2603,
      "뎌": 2604,
      "뎐": 2605,
      "뎠": 2606,
      "뎡": 2607,
      "뎨": 2608,
      "뎬": 2609,
      "도": 2610,
      "독": 2611,
      "돈": 2612,
      "돋": 2613,
      "돌": 2614,
      "돔": 2615,
      "돕": 2616,
      "돗": 2617,
      "동": 2618,
      "돚": 2619,
      "돛": 2620,
      "돜": 2621,
      "돝": 2622,
      "돟": 2623,
      "돠": 2624,
      "돤": 2625,
      "돨": 2626,
      "돼": 2627,
      "됀": 2628,
      "됄": 2629,
      "됌": 2630,
      "됍": 2631,
      "됏": 2632,
      "됐": 2633,
      "되": 2634,
      "된": 2635,
      "될": 2636,
      "됨": 2637,
      "됩": 2638,
      "됫": 2639,
      "됬": 2640,
      "됭": 2641,
      "됴": 2642,
      "두": 2643,
      "둑": 2644,
      "둔": 2645,
      "둘": 2646,
      "둠": 2647,
      "둡": 2648,
      "둣": 2649,
      "둥": 2650,
      "둬": 2651,
      "둿": 2652,
      "뒀": 2653,
      "뒈": 2654,
      "뒤": 2655,
      "뒷": 2656,
      "뒹": 2657,
      "듀": 2658,
      "듁": 2659,
      "듄": 2660,
      "듈": 2661,
      "듐": 2662,
      "듕": 2663,
      "드": 2664,
      "득": 2665,
      "든": 2666,
      "듣": 2667,
      "들": 2668,
      "듦": 2669,
      "듬": 2670,
      "듭": 2671,
      "듯": 2672,
      "등": 2673,
      "듲": 2674,
      "듵": 2675,
      "듷": 2676,
      "듸": 2677,
      "딋": 2678,
      "디": 2679,
      "딕": 2680,
      "딘": 2681,
      "딛": 2682,
      "딜": 2683,
      "딤": 2684,
      "딥": 2685,
      "딧": 2686,
      "딨": 2687,
      "딩": 2688,
      "딪": 2689,
      "딫": 2690,
      "따": 2691,
      "딱": 2692,
      "딲": 2693,
      "딴": 2694,
      "딸": 2695,
      "딹": 2696,
      "땀": 2697,
      "땁": 2698,
      "땃": 2699,
      "땄": 2700,
      "땅": 2701,
      "땋": 2702,
      "때": 2703,
      "땍": 2704,
      "땐": 2705,
      "땔": 2706,
      "땜": 2707,
      "땝": 2708,
      "땟": 2709,
      "땠": 2710,
      "땡": 2711,
      "땨": 2712,
      "떄": 2713,
      "떈": 2714,
      "떙": 2715,
      "떠": 2716,
      "떡": 2717,
      "떤": 2718,
      "떨": 2719,
      "떫": 2720,
      "떰": 2721,
      "떱": 2722,
      "떳": 2723,
      "떴": 2724,
      "떵": 2725,
      "떻": 2726,
      "떼": 2727,
      "떽": 2728,
      "뗀": 2729,
      "뗄": 2730,
      "뗌": 2731,
      "뗏": 2732,
      "뗐": 2733,
      "뗑": 2734,
      "뗘": 2735,
      "뗴": 2736,
      "또": 2737,
      "똑": 2738,
      "똔": 2739,
      "똘": 2740,
      "똠": 2741,
      "똣": 2742,
      "똥": 2743,
      "똬": 2744,
      "똭": 2745,
      "뙇": 2746,
      "뙈": 2747,
      "뙤": 2748,
      "뚜": 2749,
      "뚝": 2750,
      "뚠": 2751,
      "뚤": 2752,
      "뚫": 2753,
      "뚬": 2754,
      "뚯": 2755,
      "뚱": 2756,
      "뛔": 2757,
      "뛰": 2758,
      "뛴": 2759,
      "뛸": 2760,
      "뜀": 2761,
      "뜁": 2762,
      "뜨": 2763,
      "뜩": 2764,
      "뜬": 2765,
      "뜯": 2766,
      "뜰": 2767,
      "뜸": 2768,
      "뜹": 2769,
      "뜻": 2770,
      "뜽": 2771,
      "띁": 2772,
      "띄": 2773,
      "띈": 2774,
      "띌": 2775,
      "띔": 2776,
      "띕": 2777,
      "띠": 2778,
      "띡": 2779,
      "띤": 2780,
      "띨": 2781,
      "띱": 2782,
      "띵": 2783,
      "라": 2784,
      "락": 2785,
      "란": 2786,
      "랃": 2787,
      "랄": 2788,
      "람": 2789,
      "랍": 2790,
      "랏": 2791,
      "랐": 2792,
      "랑": 2793,
      "랒": 2794,
      "랔": 2795,
      "랖": 2796,
      "랗": 2797,
      "래": 2798,
      "랙": 2799,
      "랜": 2800,
      "랠": 2801,
      "램": 2802,
      "랩": 2803,
      "랫": 2804,
      "랬": 2805,
      "랭": 2806,
      "랰": 2807,
      "랴": 2808,
      "략": 2809,
      "랸": 2810,
      "랼": 2811,
      "럄": 2812,
      "럈": 2813,
      "량": 2814,
      "럐": 2815,
      "러": 2816,
      "럭": 2817,
      "런": 2818,
      "럴": 2819,
      "럼": 2820,
      "럽": 2821,
      "럿": 2822,
      "렀": 2823,
      "렁": 2824,
      "렂": 2825,
      "렇": 2826,
      "레": 2827,
      "렉": 2828,
      "렌": 2829,
      "렐": 2830,
      "렘": 2831,
      "렙": 2832,
      "렛": 2833,
      "렜": 2834,
      "렝": 2835,
      "려": 2836,
      "력": 2837,
      "련": 2838,
      "렬": 2839,
      "렴": 2840,
      "렵": 2841,
      "렷": 2842,
      "렸": 2843,
      "령": 2844,
      "렿": 2845,
      "례": 2846,
      "롄": 2847,
      "로": 2848,
      "록": 2849,
      "론": 2850,
      "롤": 2851,
      "롬": 2852,
      "롭": 2853,
      "롯": 2854,
      "롱": 2855,
      "롴": 2856,
      "롷": 2857,
      "롸": 2858,
      "롹": 2859,
      "롼": 2860,
      "뢀": 2861,
      "뢔": 2862,
      "뢰": 2863,
      "뢴": 2864,
      "뢸": 2865,
      "룀": 2866,
      "료": 2867,
      "룐": 2868,
      "룔": 2869,
      "룡": 2870,
      "루": 2871,
      "룩": 2872,
      "룬": 2873,
      "룰": 2874,
      "룸": 2875,
      "룹": 2876,
      "룻": 2877,
      "룽": 2878,
      "뤄": 2879,
      "뤈": 2880,
      "뤘": 2881,
      "뤠": 2882,
      "뤡": 2883,
      "뤼": 2884,
      "뤽": 2885,
      "륀": 2886,
      "륄": 2887,
      "류": 2888,
      "륙": 2889,
      "륜": 2890,
      "률": 2891,
      "륨": 2892,
      "륭": 2893,
      "르": 2894,
      "륵": 2895,
      "른": 2896,
      "를": 2897,
      "름": 2898,
      "릅": 2899,
      "릇": 2900,
      "릉": 2901,
      "릎": 2902,
      "릏": 2903,
      "릐": 2904,
      "리": 2905,
      "릭": 2906,
      "린": 2907,
      "릴": 2908,
      "림": 2909,
      "립": 2910,
      "릿": 2911,
      "맀": 2912,
      "링": 2913,
      "맂": 2914,
      "맄": 2915,
      "맇": 2916,
      "마": 2917,
      "막": 2918,
      "만": 2919,
      "맍": 2920,
      "많": 2921,
      "맏": 2922,
      "말": 2923,
      "맑": 2924,
      "맗": 2925,
      "맘": 2926,
      "맙": 2927,
      "맛": 2928,
      "맜": 2929,
      "망": 2930,
      "맞": 2931,
      "맟": 2932,
      "맠": 2933,
      "맡": 2934,
      "맣": 2935,
      "매": 2936,
      "맥": 2937,
      "맨": 2938,
      "맬": 2939,
      "맴": 2940,
      "맵": 2941,
      "맷": 2942,
      "맸": 2943,
      "맹": 2944,
      "맺": 2945,
      "먀": 2946,
      "먄": 2947,
      "먈": 2948,
      "먐": 2949,
      "먕": 2950,
      "먜": 2951,
      "머": 2952,
      "먹": 2953,
      "먼": 2954,
      "먾": 2955,
      "멀": 2956,
      "멈": 2957,
      "멉": 2958,
      "멊": 2959,
      "멋": 2960,
      "멍": 2961,
      "멎": 2962,
      "멏": 2963,
      "멓": 2964,
      "메": 2965,
      "멕": 2966,
      "멘": 2967,
      "멜": 2968,
      "멤": 2969,
      "멥": 2970,
      "멧": 2971,
      "멨": 2972,
      "멩": 2973,
      "며": 2974,
      "멱": 2975,
      "면": 2976,
      "멸": 2977,
      "몀": 2978,
      "몃": 2979,
      "몄": 2980,
      "명": 2981,
      "몆": 2982,
      "몇": 2983,
      "몈": 2984,
      "몌": 2985,
      "모": 2986,
      "목": 2987,
      "몫": 2988,
      "몬": 2989,
      "몯": 2990,
      "몰": 2991,
      "몸": 2992,
      "몹": 2993,
      "못": 2994,
      "몽": 2995,
      "몾": 2996,
      "뫃": 2997,
      "뫄": 2998,
      "뫼": 2999,
      "묀": 3000,
      "묄": 3001,
      "묏": 3002,
      "묘": 3003,
      "묜": 3004,
      "묭": 3005,
      "무": 3006,
      "묵": 3007,
      "묶": 3008,
      "문": 3009,
      "묹": 3010,
      "묻": 3011,
      "물": 3012,
      "묽": 3013,
      "뭄": 3014,
      "뭅": 3015,
      "뭇": 3016,
      "뭉": 3017,
      "뭍": 3018,
      "뭏": 3019,
      "뭐": 3020,
      "뭔": 3021,
      "뭘": 3022,
      "뭡": 3023,
      "뭣": 3024,
      "뭥": 3025,
      "뭬": 3026,
      "뮈": 3027,
      "뮌": 3028,
      "뮐": 3029,
      "뮛": 3030,
      "뮤": 3031,
      "뮨": 3032,
      "뮬": 3033,
      "뮴": 3034,
      "므": 3035,
      "믁": 3036,
      "믄": 3037,
      "믈": 3038,
      "믐": 3039,
      "믓": 3040,
      "믕": 3041,
      "믜": 3042,
      "미": 3043,
      "믹": 3044,
      "민": 3045,
      "믾": 3046,
      "믿": 3047,
      "밀": 3048,
      "밈": 3049,
      "밉": 3050,
      "밋": 3051,
      "밌": 3052,
      "밍": 3053,
      "밎": 3054,
      "및": 3055,
      "밑": 3056,
      "바": 3057,
      "박": 3058,
      "밖": 3059,
      "반": 3060,
      "받": 3061,
      "발": 3062,
      "밝": 3063,
      "밞": 3064,
      "밟": 3065,
      "밣": 3066,
      "밤": 3067,
      "밥": 3068,
      "밧": 3069,
      "밨": 3070,
      "방": 3071,
      "밪": 3072,
      "밬": 3073,
      "밭": 3074,
      "배": 3075,
      "백": 3076,
      "밴": 3077,
      "밷": 3078,
      "밸": 3079,
      "뱀": 3080,
      "뱁": 3081,
      "뱃": 3082,
      "뱄": 3083,
      "뱅": 3084,
      "뱉": 3085,
      "뱌": 3086,
      "뱍": 3087,
      "뱐": 3088,
      "뱔": 3089,
      "뱡": 3090,
      "버": 3091,
      "벅": 3092,
      "번": 3093,
      "벋": 3094,
      "벌": 3095,
      "범": 3096,
      "법": 3097,
      "벗": 3098,
      "벙": 3099,
      "벚": 3100,
      "베": 3101,
      "벡": 3102,
      "벤": 3103,
      "벧": 3104,
      "벨": 3105,
      "벰": 3106,
      "벱": 3107,
      "벳": 3108,
      "벵": 3109,
      "벼": 3110,
      "벽": 3111,
      "변": 3112,
      "별": 3113,
      "볌": 3114,
      "볍": 3115,
      "볏": 3116,
      "볐": 3117,
      "병": 3118,
      "볓": 3119,
      "볕": 3120,
      "볘": 3121,
      "볜": 3122,
      "보": 3123,
      "복": 3124,
      "볶": 3125,
      "본": 3126,
      "볻": 3127,
      "볼": 3128,
      "봄": 3129,
      "봅": 3130,
      "봇": 3131,
      "봉": 3132,
      "봊": 3133,
      "봏": 3134,
      "봐": 3135,
      "봘": 3136,
      "봣": 3137,
      "봤": 3138,
      "봥": 3139,
      "봨": 3140,
      "봬": 3141,
      "뵀": 3142,
      "뵈": 3143,
      "뵌": 3144,
      "뵐": 3145,
      "뵙": 3146,
      "뵜": 3147,
      "뵤": 3148,
      "뵨": 3149,
      "뵹": 3150,
      "부": 3151,
      "북": 3152,
      "분": 3153,
      "붇": 3154,
      "불": 3155,
      "붉": 3156,
      "붐": 3157,
      "붑": 3158,
      "붓": 3159,
      "붕": 3160,
      "붙": 3161,
      "붜": 3162,
      "붸": 3163,
      "뷔": 3164,
      "뷜": 3165,
      "뷩": 3166,
      "뷰": 3167,
      "뷱": 3168,
      "뷴": 3169,
      "뷸": 3170,
      "븀": 3171,
      "븅": 3172,
      "브": 3173,
      "븍": 3174,
      "븐": 3175,
      "블": 3176,
      "븜": 3177,
      "븝": 3178,
      "븟": 3179,
      "븡": 3180,
      "븥": 3181,
      "븨": 3182,
      "븯": 3183,
      "븳": 3184,
      "븽": 3185,
      "비": 3186,
      "빅": 3187,
      "빈": 3188,
      "빋": 3189,
      "빌": 3190,
      "빔": 3191,
      "빕": 3192,
      "빗": 3193,
      "빙": 3194,
      "빚": 3195,
      "빛": 3196,
      "빟": 3197,
      "빠": 3198,
      "빡": 3199,
      "빤": 3200,
      "빨": 3201,
      "빩": 3202,
      "빰": 3203,
      "빱": 3204,
      "빳": 3205,
      "빴": 3206,
      "빵": 3207,
      "빻": 3208,
      "빼": 3209,
      "빽": 3210,
      "뺀": 3211,
      "뺃": 3212,
      "뺄": 3213,
      "뺌": 3214,
      "뺍": 3215,
      "뺏": 3216,
      "뺐": 3217,
      "뺑": 3218,
      "뺘": 3219,
      "뺠": 3220,
      "뺨": 3221,
      "뺴": 3222,
      "뻐": 3223,
      "뻑": 3224,
      "뻔": 3225,
      "뻗": 3226,
      "뻘": 3227,
      "뻣": 3228,
      "뻤": 3229,
      "뻥": 3230,
      "뻬": 3231,
      "뼈": 3232,
      "뼉": 3233,
      "뼘": 3234,
      "뼛": 3235,
      "뼝": 3236,
      "뽀": 3237,
      "뽁": 3238,
      "뽂": 3239,
      "뽄": 3240,
      "뽈": 3241,
      "뽐": 3242,
      "뽑": 3243,
      "뽕": 3244,
      "뽜": 3245,
      "뽝": 3246,
      "뽤": 3247,
      "뾰": 3248,
      "뾱": 3249,
      "뿅": 3250,
      "뿉": 3251,
      "뿌": 3252,
      "뿍": 3253,
      "뿐": 3254,
      "뿔": 3255,
      "뿜": 3256,
      "뿝": 3257,
      "뿟": 3258,
      "뿡": 3259,
      "뿨": 3260,
      "쀼": 3261,
      "쁘": 3262,
      "쁜": 3263,
      "쁠": 3264,
      "쁨": 3265,
      "쁩": 3266,
      "삐": 3267,
      "삑": 3268,
      "삔": 3269,
      "삘": 3270,
      "삣": 3271,
      "삥": 3272,
      "사": 3273,
      "삭": 3274,
      "삯": 3275,
      "산": 3276,
      "살": 3277,
      "삵": 3278,
      "삶": 3279,
      "삻": 3280,
      "삼": 3281,
      "삽": 3282,
      "삿": 3283,
      "샀": 3284,
      "상": 3285,
      "샄": 3286,
      "샅": 3287,
      "샆": 3288,
      "샇": 3289,
      "새": 3290,
      "색": 3291,
      "샊": 3292,
      "샋": 3293,
      "샌": 3294,
      "샏": 3295,
      "샐": 3296,
      "샘": 3297,
      "샙": 3298,
      "샛": 3299,
      "샜": 3300,
      "생": 3301,
      "샠": 3302,
      "샡": 3303,
      "샣": 3304,
      "샤": 3305,
      "샥": 3306,
      "샨": 3307,
      "샬": 3308,
      "샴": 3309,
      "샵": 3310,
      "샷": 3311,
      "샹": 3312,
      "샾": 3313,
      "섀": 3314,
      "섁": 3315,
      "섕": 3316,
      "서": 3317,
      "석": 3318,
      "섞": 3319,
      "선": 3320,
      "섣": 3321,
      "설": 3322,
      "섦": 3323,
      "섬": 3324,
      "섭": 3325,
      "섯": 3326,
      "섰": 3327,
      "성": 3328,
      "섲": 3329,
      "섴": 3330,
      "섶": 3331,
      "세": 3332,
      "섹": 3333,
      "섺": 3334,
      "센": 3335,
      "셀": 3336,
      "셈": 3337,
      "셉": 3338,
      "셋": 3339,
      "셌": 3340,
      "셍": 3341,
      "셐": 3342,
      "셑": 3343,
      "셓": 3344,
      "셔": 3345,
      "셕": 3346,
      "션": 3347,
      "셜": 3348,
      "셤": 3349,
      "셧": 3350,
      "셨": 3351,
      "셩": 3352,
      "셰": 3353,
      "셱": 3354,
      "셴": 3355,
      "셸": 3356,
      "솅": 3357,
      "소": 3358,
      "속": 3359,
      "솎": 3360,
      "손": 3361,
      "솓": 3362,
      "솔": 3363,
      "솜": 3364,
      "솝": 3365,
      "솟": 3366,
      "송": 3367,
      "솤": 3368,
      "솥": 3369,
      "솨": 3370,
      "솽": 3371,
      "쇄": 3372,
      "쇅": 3373,
      "쇆": 3374,
      "쇠": 3375,
      "쇤": 3376,
      "쇳": 3377,
      "쇼": 3378,
      "쇽": 3379,
      "숀": 3380,
      "숄": 3381,
      "숍": 3382,
      "숏": 3383,
      "숑": 3384,
      "수": 3385,
      "숙": 3386,
      "순": 3387,
      "숟": 3388,
      "술": 3389,
      "숨": 3390,
      "숩": 3391,
      "숫": 3392,
      "숭": 3393,
      "숮": 3394,
      "숯": 3395,
      "숱": 3396,
      "숲": 3397,
      "숴": 3398,
      "숸": 3399,
      "숼": 3400,
      "쉅": 3401,
      "쉈": 3402,
      "쉐": 3403,
      "쉑": 3404,
      "쉒": 3405,
      "쉔": 3406,
      "쉘": 3407,
      "쉣": 3408,
      "쉥": 3409,
      "쉨": 3410,
      "쉬": 3411,
      "쉭": 3412,
      "쉰": 3413,
      "쉴": 3414,
      "쉼": 3415,
      "쉽": 3416,
      "쉿": 3417,
      "슁": 3418,
      "슈": 3419,
      "슉": 3420,
      "슌": 3421,
      "슐": 3422,
      "슘": 3423,
      "슙": 3424,
      "슛": 3425,
      "슝": 3426,
      "스": 3427,
      "슥": 3428,
      "슨": 3429,
      "슬": 3430,
      "슭": 3431,
      "슴": 3432,
      "습": 3433,
      "슷": 3434,
      "승": 3435,
      "슺": 3436,
      "슼": 3437,
      "슾": 3438,
      "싀": 3439,
      "싄": 3440,
      "싑": 3441,
      "시": 3442,
      "식": 3443,
      "신": 3444,
      "싢": 3445,
      "싣": 3446,
      "실": 3447,
      "싨": 3448,
      "싫": 3449,
      "심": 3450,
      "십": 3451,
      "싯": 3452,
      "싰": 3453,
      "싱": 3454,
      "싲": 3455,
      "싳": 3456,
      "싴": 3457,
      "싶": 3458,
      "싷": 3459,
      "싸": 3460,
      "싹": 3461,
      "싼": 3462,
      "쌀": 3463,
      "쌈": 3464,
      "쌉": 3465,
      "쌋": 3466,
      "쌌": 3467,
      "쌍": 3468,
      "쌓": 3469,
      "쌔": 3470,
      "쌕": 3471,
      "쌖": 3472,
      "쌘": 3473,
      "쌤": 3474,
      "쌨": 3475,
      "쌩": 3476,
      "쌰": 3477,
      "썅": 3478,
      "썌": 3479,
      "써": 3480,
      "썩": 3481,
      "썪": 3482,
      "썬": 3483,
      "썰": 3484,
      "썸": 3485,
      "썹": 3486,
      "썻": 3487,
      "썼": 3488,
      "썽": 3489,
      "쎀": 3490,
      "쎄": 3491,
      "쎅": 3492,
      "쎈": 3493,
      "쎌": 3494,
      "쎔": 3495,
      "쎕": 3496,
      "쎘": 3497,
      "쎠": 3498,
      "쎼": 3499,
      "쏘": 3500,
      "쏙": 3501,
      "쏜": 3502,
      "쏟": 3503,
      "쏠": 3504,
      "쏨": 3505,
      "쏩": 3506,
      "쏫": 3507,
      "쏭": 3508,
      "쏱": 3509,
      "쏴": 3510,
      "쏵": 3511,
      "쐇": 3512,
      "쐈": 3513,
      "쐐": 3514,
      "쐬": 3515,
      "쐴": 3516,
      "쑈": 3517,
      "쑝": 3518,
      "쑤": 3519,
      "쑥": 3520,
      "쑨": 3521,
      "쑬": 3522,
      "쑴": 3523,
      "쑵": 3524,
      "쑹": 3525,
      "쒀": 3526,
      "쒜": 3527,
      "쒝": 3528,
      "쒸": 3529,
      "쒼": 3530,
      "쓉": 3531,
      "쓔": 3532,
      "쓣": 3533,
      "쓰": 3534,
      "쓱": 3535,
      "쓴": 3536,
      "쓸": 3537,
      "쓽": 3538,
      "씀": 3539,
      "씁": 3540,
      "씅": 3541,
      "씌": 3542,
      "씐": 3543,
      "씝": 3544,
      "씠": 3545,
      "씨": 3546,
      "씩": 3547,
      "씬": 3548,
      "씰": 3549,
      "씸": 3550,
      "씹": 3551,
      "씻": 3552,
      "씼": 3553,
      "씽": 3554,
      "앂": 3555,
      "아": 3556,
      "악": 3557,
      "안": 3558,
      "앉": 3559,
      "않": 3560,
      "앋": 3561,
      "알": 3562,
      "앍": 3563,
      "앎": 3564,
      "앏": 3565,
      "앓": 3566,
      "암": 3567,
      "압": 3568,
      "앖": 3569,
      "앗": 3570,
      "았": 3571,
      "앙": 3572,
      "앚": 3573,
      "앜": 3574,
      "앝": 3575,
      "앞": 3576,
      "앟": 3577,
      "애": 3578,
      "액": 3579,
      "앤": 3580,
      "앨": 3581,
      "앰": 3582,
      "앱": 3583,
      "앳": 3584,
      "앴": 3585,
      "앵": 3586,
      "야": 3587,
      "약": 3588,
      "얀": 3589,
      "얄": 3590,
      "얆": 3591,
      "얇": 3592,
      "얊": 3593,
      "얌": 3594,
      "얍": 3595,
      "얏": 3596,
      "얐": 3597,
      "양": 3598,
      "얔": 3599,
      "얕": 3600,
      "얗": 3601,
      "얘": 3602,
      "얜": 3603,
      "어": 3604,
      "억": 3605,
      "얶": 3606,
      "언": 3607,
      "얹": 3608,
      "얺": 3609,
      "얻": 3610,
      "얼": 3611,
      "얽": 3612,
      "엄": 3613,
      "업": 3614,
      "없": 3615,
      "엇": 3616,
      "었": 3617,
      "엉": 3618,
      "엊": 3619,
      "엌": 3620,
      "엎": 3621,
      "엏": 3622,
      "에": 3623,
      "엑": 3624,
      "엔": 3625,
      "엘": 3626,
      "엠": 3627,
      "엡": 3628,
      "엣": 3629,
      "엤": 3630,
      "엥": 3631,
      "엨": 3632,
      "여": 3633,
      "역": 3634,
      "엮": 3635,
      "연": 3636,
      "엳": 3637,
      "열": 3638,
      "엷": 3639,
      "염": 3640,
      "엽": 3641,
      "엾": 3642,
      "엿": 3643,
      "였": 3644,
      "영": 3645,
      "옄": 3646,
      "옅": 3647,
      "옆": 3648,
      "옇": 3649,
      "예": 3650,
      "옌": 3651,
      "옐": 3652,
      "옘": 3653,
      "옙": 3654,
      "옛": 3655,
      "옜": 3656,
      "오": 3657,
      "옥": 3658,
      "온": 3659,
      "옫": 3660,
      "올": 3661,
      "옭": 3662,
      "옮": 3663,
      "옳": 3664,
      "옴": 3665,
      "옵": 3666,
      "옶": 3667,
      "옷": 3668,
      "옹": 3669,
      "옺": 3670,
      "옻": 3671,
      "옼": 3672,
      "옿": 3673,
      "와": 3674,
      "왁": 3675,
      "완": 3676,
      "왈": 3677,
      "왐": 3678,
      "왑": 3679,
      "왓": 3680,
      "왔": 3681,
      "왕": 3682,
      "왘": 3683,
      "왜": 3684,
      "왝": 3685,
      "왠": 3686,
      "왤": 3687,
      "왱": 3688,
      "외": 3689,
      "왼": 3690,
      "욀": 3691,
      "욌": 3692,
      "욍": 3693,
      "요": 3694,
      "욕": 3695,
      "욘": 3696,
      "욛": 3697,
      "욜": 3698,
      "욤": 3699,
      "욥": 3700,
      "욧": 3701,
      "용": 3702,
      "욪": 3703,
      "욬": 3704,
      "욭": 3705,
      "욮": 3706,
      "욯": 3707,
      "우": 3708,
      "욱": 3709,
      "운": 3710,
      "욷": 3711,
      "울": 3712,
      "욹": 3713,
      "움": 3714,
      "웁": 3715,
      "웂": 3716,
      "웃": 3717,
      "웅": 3718,
      "워": 3719,
      "웍": 3720,
      "원": 3721,
      "월": 3722,
      "웜": 3723,
      "웟": 3724,
      "웠": 3725,
      "웡": 3726,
      "웤": 3727,
      "웨": 3728,
      "웩": 3729,
      "웬": 3730,
      "웰": 3731,
      "웸": 3732,
      "웹": 3733,
      "웻": 3734,
      "웽": 3735,
      "위": 3736,
      "윅": 3737,
      "윈": 3738,
      "윌": 3739,
      "윔": 3740,
      "윕": 3741,
      "윗": 3742,
      "윘": 3743,
      "윙": 3744,
      "유": 3745,
      "육": 3746,
      "윤": 3747,
      "율": 3748,
      "윰": 3749,
      "윱": 3750,
      "윳": 3751,
      "융": 3752,
      "윷": 3753,
      "으": 3754,
      "윽": 3755,
      "윾": 3756,
      "은": 3757,
      "읁": 3758,
      "읃": 3759,
      "을": 3760,
      "읇": 3761,
      "읊": 3762,
      "음": 3763,
      "읍": 3764,
      "읎": 3765,
      "읏": 3766,
      "응": 3767,
      "읔": 3768,
      "읕": 3769,
      "읖": 3770,
      "읗": 3771,
      "의": 3772,
      "읜": 3773,
      "읭": 3774,
      "이": 3775,
      "익": 3776,
      "읶": 3777,
      "인": 3778,
      "읹": 3779,
      "읺": 3780,
      "읻": 3781,
      "일": 3782,
      "읽": 3783,
      "읿": 3784,
      "잃": 3785,
      "임": 3786,
      "입": 3787,
      "잆": 3788,
      "잇": 3789,
      "있": 3790,
      "잉": 3791,
      "잊": 3792,
      "잋": 3793,
      "잌": 3794,
      "잍": 3795,
      "잎": 3796,
      "잏": 3797,
      "자": 3798,
      "작": 3799,
      "잔": 3800,
      "잖": 3801,
      "잗": 3802,
      "잘": 3803,
      "잚": 3804,
      "잛": 3805,
      "잠": 3806,
      "잡": 3807,
      "잣": 3808,
      "잤": 3809,
      "장": 3810,
      "잦": 3811,
      "잨": 3812,
      "잫": 3813,
      "재": 3814,
      "잭": 3815,
      "잰": 3816,
      "잴": 3817,
      "잼": 3818,
      "잽": 3819,
      "잿": 3820,
      "쟀": 3821,
      "쟁": 3822,
      "쟈": 3823,
      "쟉": 3824,
      "쟌": 3825,
      "쟎": 3826,
      "쟐": 3827,
      "쟙": 3828,
      "쟝": 3829,
      "쟤": 3830,
      "쟨": 3831,
      "저": 3832,
      "적": 3833,
      "전": 3834,
      "젇": 3835,
      "절": 3836,
      "젊": 3837,
      "젋": 3838,
      "점": 3839,
      "접": 3840,
      "젓": 3841,
      "젔": 3842,
      "정": 3843,
      "젖": 3844,
      "젙": 3845,
      "젛": 3846,
      "제": 3847,
      "젝": 3848,
      "젠": 3849,
      "젣": 3850,
      "젤": 3851,
      "젬": 3852,
      "젭": 3853,
      "젯": 3854,
      "젱": 3855,
      "져": 3856,
      "젹": 3857,
      "젼": 3858,
      "졀": 3859,
      "졋": 3860,
      "졌": 3861,
      "졍": 3862,
      "졎": 3863,
      "졓": 3864,
      "졔": 3865,
      "조": 3866,
      "족": 3867,
      "존": 3868,
      "졷": 3869,
      "졸": 3870,
      "좀": 3871,
      "좁": 3872,
      "좃": 3873,
      "좄": 3874,
      "종": 3875,
      "좆": 3876,
      "좇": 3877,
      "좈": 3878,
      "좉": 3879,
      "좊": 3880,
      "좋": 3881,
      "좌": 3882,
      "좍": 3883,
      "좔": 3884,
      "좝": 3885,
      "좟": 3886,
      "좡": 3887,
      "좥": 3888,
      "좦": 3889,
      "좨": 3890,
      "죄": 3891,
      "죈": 3892,
      "죌": 3893,
      "죕": 3894,
      "죗": 3895,
      "죙": 3896,
      "죠": 3897,
      "죡": 3898,
      "죤": 3899,
      "죧": 3900,
      "죨": 3901,
      "죳": 3902,
      "죴": 3903,
      "죵": 3904,
      "죸": 3905,
      "죹": 3906,
      "죻": 3907,
      "주": 3908,
      "죽": 3909,
      "준": 3910,
      "줄": 3911,
      "줌": 3912,
      "줍": 3913,
      "줏": 3914,
      "중": 3915,
      "줒": 3916,
      "줗": 3917,
      "줘": 3918,
      "줜": 3919,
      "줠": 3920,
      "줫": 3921,
      "줬": 3922,
      "줭": 3923,
      "줮": 3924,
      "줴": 3925,
      "쥐": 3926,
      "쥑": 3927,
      "쥔": 3928,
      "쥘": 3929,
      "쥤": 3930,
      "쥥": 3931,
      "쥬": 3932,
      "쥭": 3933,
      "쥰": 3934,
      "쥴": 3935,
      "쥼": 3936,
      "즁": 3937,
      "즇": 3938,
      "즈": 3939,
      "즉": 3940,
      "즌": 3941,
      "즐": 3942,
      "즘": 3943,
      "즙": 3944,
      "즛": 3945,
      "증": 3946,
      "즣": 3947,
      "즤": 3948,
      "즨": 3949,
      "즹": 3950,
      "지": 3951,
      "직": 3952,
      "진": 3953,
      "짆": 3954,
      "짇": 3955,
      "질": 3956,
      "짊": 3957,
      "짐": 3958,
      "집": 3959,
      "짒": 3960,
      "짓": 3961,
      "징": 3962,
      "짖": 3963,
      "짗": 3964,
      "짘": 3965,
      "짙": 3966,
      "짚": 3967,
      "짛": 3968,
      "짜": 3969,
      "짝": 3970,
      "짠": 3971,
      "짢": 3972,
      "짤": 3973,
      "짦": 3974,
      "짧": 3975,
      "짬": 3976,
      "짭": 3977,
      "짯": 3978,
      "짰": 3979,
      "짱": 3980,
      "짴": 3981,
      "째": 3982,
      "짹": 3983,
      "짼": 3984,
      "쨈": 3985,
      "쨉": 3986,
      "쨋": 3987,
      "쨌": 3988,
      "쨍": 3989,
      "쨔": 3990,
      "쨘": 3991,
      "쨩": 3992,
      "쨰": 3993,
      "쩌": 3994,
      "쩍": 3995,
      "쩐": 3996,
      "쩔": 3997,
      "쩜": 3998,
      "쩝": 3999,
      "쩡": 4000,
      "쩨": 4001,
      "쪄": 4002,
      "쪕": 4003,
      "쪘": 4004,
      "쪙": 4005,
      "쪼": 4006,
      "쪽": 4007,
      "쪾": 4008,
      "쫀": 4009,
      "쫄": 4010,
      "쫌": 4011,
      "쫍": 4012,
      "쫏": 4013,
      "쫑": 4014,
      "쫒": 4015,
      "쫓": 4016,
      "쫗": 4017,
      "쫘": 4018,
      "쫙": 4019,
      "쫩": 4020,
      "쫭": 4021,
      "쬐": 4022,
      "쬠": 4023,
      "쬬": 4024,
      "쭈": 4025,
      "쭉": 4026,
      "쭌": 4027,
      "쭐": 4028,
      "쭘": 4029,
      "쭙": 4030,
      "쭝": 4031,
      "쭤": 4032,
      "쭵": 4033,
      "쮜": 4034,
      "쮸": 4035,
      "쯔": 4036,
      "쯤": 4037,
      "쯥": 4038,
      "쯧": 4039,
      "쯩": 4040,
      "쯪": 4041,
      "찌": 4042,
      "찍": 4043,
      "찐": 4044,
      "찔": 4045,
      "찜": 4046,
      "찝": 4047,
      "찟": 4048,
      "찡": 4049,
      "찢": 4050,
      "찧": 4051,
      "차": 4052,
      "착": 4053,
      "찬": 4054,
      "찮": 4055,
      "찰": 4056,
      "참": 4057,
      "찹": 4058,
      "찻": 4059,
      "찼": 4060,
      "창": 4061,
      "찾": 4062,
      "찿": 4063,
      "챃": 4064,
      "채": 4065,
      "책": 4066,
      "챈": 4067,
      "챌": 4068,
      "챔": 4069,
      "챕": 4070,
      "챗": 4071,
      "챘": 4072,
      "챙": 4073,
      "챠": 4074,
      "챡": 4075,
      "챤": 4076,
      "챦": 4077,
      "챨": 4078,
      "챱": 4079,
      "챵": 4080,
      "처": 4081,
      "척": 4082,
      "천": 4083,
      "철": 4084,
      "첨": 4085,
      "첩": 4086,
      "첫": 4087,
      "첬": 4088,
      "청": 4089,
      "첮": 4090,
      "체": 4091,
      "첵": 4092,
      "첸": 4093,
      "첼": 4094,
      "쳄": 4095,
      "쳇": 4096,
      "쳉": 4097,
      "쳐": 4098,
      "쳔": 4099,
      "쳣": 4100,
      "쳤": 4101,
      "쳥": 4102,
      "쳬": 4103,
      "초": 4104,
      "촉": 4105,
      "촌": 4106,
      "촐": 4107,
      "촘": 4108,
      "촙": 4109,
      "촛": 4110,
      "총": 4111,
      "촞": 4112,
      "촟": 4113,
      "촣": 4114,
      "촤": 4115,
      "촥": 4116,
      "촨": 4117,
      "촬": 4118,
      "촵": 4119,
      "촹": 4120,
      "최": 4121,
      "쵝": 4122,
      "쵸": 4123,
      "쵹": 4124,
      "춍": 4125,
      "추": 4126,
      "축": 4127,
      "춘": 4128,
      "출": 4129,
      "춤": 4130,
      "춥": 4131,
      "춧": 4132,
      "충": 4133,
      "춰": 4134,
      "춴": 4135,
      "췃": 4136,
      "췄": 4137,
      "췌": 4138,
      "취": 4139,
      "췬": 4140,
      "츄": 4141,
      "츈": 4142,
      "츌": 4143,
      "츙": 4144,
      "츠": 4145,
      "측": 4146,
      "츤": 4147,
      "츨": 4148,
      "츰": 4149,
      "츳": 4150,
      "층": 4151,
      "츼": 4152,
      "칀": 4153,
      "치": 4154,
      "칙": 4155,
      "친": 4156,
      "칞": 4157,
      "칠": 4158,
      "칡": 4159,
      "침": 4160,
      "칩": 4161,
      "칫": 4162,
      "칭": 4163,
      "칮": 4164,
      "칰": 4165,
      "카": 4166,
      "칵": 4167,
      "칸": 4168,
      "칼": 4169,
      "캄": 4170,
      "캅": 4171,
      "캇": 4172,
      "캉": 4173,
      "캍": 4174,
      "캐": 4175,
      "캑": 4176,
      "캔": 4177,
      "캘": 4178,
      "캠": 4179,
      "캡": 4180,
      "캣": 4181,
      "캤": 4182,
      "캥": 4183,
      "캬": 4184,
      "캭": 4185,
      "컄": 4186,
      "커": 4187,
      "컥": 4188,
      "컨": 4189,
      "컫": 4190,
      "컬": 4191,
      "컴": 4192,
      "컵": 4193,
      "컷": 4194,
      "컸": 4195,
      "컹": 4196,
      "컾": 4197,
      "케": 4198,
      "켁": 4199,
      "켄": 4200,
      "켈": 4201,
      "켐": 4202,
      "켑": 4203,
      "켓": 4204,
      "켔": 4205,
      "켕": 4206,
      "켜": 4207,
      "켠": 4208,
      "켤": 4209,
      "켬": 4210,
      "켯": 4211,
      "켰": 4212,
      "켱": 4213,
      "켸": 4214,
      "코": 4215,
      "콕": 4216,
      "콘": 4217,
      "콜": 4218,
      "콤": 4219,
      "콥": 4220,
      "콧": 4221,
      "콩": 4222,
      "콰": 4223,
      "콱": 4224,
      "콴": 4225,
      "콸": 4226,
      "쾅": 4227,
      "쾌": 4228,
      "쾡": 4229,
      "쾨": 4230,
      "쾰": 4231,
      "쿄": 4232,
      "쿠": 4233,
      "쿡": 4234,
      "쿤": 4235,
      "쿨": 4236,
      "쿰": 4237,
      "쿱": 4238,
      "쿳": 4239,
      "쿵": 4240,
      "쿸": 4241,
      "쿼": 4242,
      "퀀": 4243,
      "퀄": 4244,
      "퀘": 4245,
      "퀭": 4246,
      "퀴": 4247,
      "퀵": 4248,
      "퀸": 4249,
      "퀼": 4250,
      "큅": 4251,
      "큐": 4252,
      "큘": 4253,
      "크": 4254,
      "큭": 4255,
      "큰": 4256,
      "클": 4257,
      "큼": 4258,
      "큽": 4259,
      "큿": 4260,
      "킁": 4261,
      "킄": 4262,
      "킈": 4263,
      "키": 4264,
      "킥": 4265,
      "킨": 4266,
      "킬": 4267,
      "킴": 4268,
      "킵": 4269,
      "킷": 4270,
      "킹": 4271,
      "킼": 4272,
      "타": 4273,
      "탁": 4274,
      "탄": 4275,
      "탆": 4276,
      "탈": 4277,
      "탉": 4278,
      "탐": 4279,
      "탑": 4280,
      "탓": 4281,
      "탔": 4282,
      "탕": 4283,
      "태": 4284,
      "택": 4285,
      "탠": 4286,
      "탤": 4287,
      "탬": 4288,
      "탭": 4289,
      "탯": 4290,
      "탰": 4291,
      "탱": 4292,
      "탸": 4293,
      "터": 4294,
      "턱": 4295,
      "턴": 4296,
      "털": 4297,
      "텀": 4298,
      "텁": 4299,
      "텃": 4300,
      "텄": 4301,
      "텅": 4302,
      "텋": 4303,
      "테": 4304,
      "텍": 4305,
      "텐": 4306,
      "텔": 4307,
      "템": 4308,
      "텝": 4309,
      "텟": 4310,
      "텡": 4311,
      "텨": 4312,
      "텼": 4313,
      "톄": 4314,
      "톈": 4315,
      "토": 4316,
      "톡": 4317,
      "톤": 4318,
      "톨": 4319,
      "톰": 4320,
      "톱": 4321,
      "톳": 4322,
      "통": 4323,
      "톼": 4324,
      "퇄": 4325,
      "퇘": 4326,
      "퇫": 4327,
      "퇴": 4328,
      "툇": 4329,
      "툐": 4330,
      "툥": 4331,
      "투": 4332,
      "툭": 4333,
      "툰": 4334,
      "툴": 4335,
      "툼": 4336,
      "툽": 4337,
      "퉁": 4338,
      "퉈": 4339,
      "퉜": 4340,
      "퉤": 4341,
      "퉷": 4342,
      "튀": 4343,
      "튄": 4344,
      "튈": 4345,
      "튐": 4346,
      "튕": 4347,
      "튜": 4348,
      "튠": 4349,
      "튤": 4350,
      "튬": 4351,
      "튭": 4352,
      "트": 4353,
      "특": 4354,
      "튼": 4355,
      "튿": 4356,
      "틀": 4357,
      "틈": 4358,
      "틉": 4359,
      "틋": 4360,
      "틍": 4361,
      "틑": 4362,
      "틔": 4363,
      "티": 4364,
      "틱": 4365,
      "틴": 4366,
      "틸": 4367,
      "팀": 4368,
      "팁": 4369,
      "팃": 4370,
      "팅": 4371,
      "파": 4372,
      "팍": 4373,
      "팎": 4374,
      "판": 4375,
      "팔": 4376,
      "팜": 4377,
      "팝": 4378,
      "팟": 4379,
      "팠": 4380,
      "팡": 4381,
      "팥": 4382,
      "패": 4383,
      "팩": 4384,
      "팬": 4385,
      "팰": 4386,
      "팸": 4387,
      "팹": 4388,
      "팻": 4389,
      "팼": 4390,
      "팽": 4391,
      "퍄": 4392,
      "퍅": 4393,
      "퍈": 4394,
      "퍠": 4395,
      "퍼": 4396,
      "퍽": 4397,
      "펀": 4398,
      "펄": 4399,
      "펌": 4400,
      "펍": 4401,
      "펏": 4402,
      "펐": 4403,
      "펑": 4404,
      "페": 4405,
      "펙": 4406,
      "펜": 4407,
      "펠": 4408,
      "펨": 4409,
      "펩": 4410,
      "펫": 4411,
      "펭": 4412,
      "펴": 4413,
      "편": 4414,
      "펼": 4415,
      "폄": 4416,
      "폈": 4417,
      "평": 4418,
      "폐": 4419,
      "포": 4420,
      "폭": 4421,
      "폰": 4422,
      "폴": 4423,
      "폼": 4424,
      "폿": 4425,
      "퐁": 4426,
      "퐈": 4427,
      "퐉": 4428,
      "퐐": 4429,
      "퐝": 4430,
      "푀": 4431,
      "표": 4432,
      "푠": 4433,
      "푯": 4434,
      "푸": 4435,
      "푹": 4436,
      "푼": 4437,
      "풀": 4438,
      "풂": 4439,
      "품": 4440,
      "풉": 4441,
      "풋": 4442,
      "풍": 4443,
      "퓌": 4444,
      "퓨": 4445,
      "퓰": 4446,
      "퓸": 4447,
      "프": 4448,
      "픈": 4449,
      "플": 4450,
      "픔": 4451,
      "픕": 4452,
      "픙": 4453,
      "피": 4454,
      "픽": 4455,
      "핀": 4456,
      "필": 4457,
      "핌": 4458,
      "핍": 4459,
      "핏": 4460,
      "핑": 4461,
      "하": 4462,
      "학": 4463,
      "한": 4464,
      "핟": 4465,
      "할": 4466,
      "핡": 4467,
      "핣": 4468,
      "핥": 4469,
      "핧": 4470,
      "함": 4471,
      "합": 4472,
      "핫": 4473,
      "핬": 4474,
      "항": 4475,
      "핮": 4476,
      "핰": 4477,
      "핱": 4478,
      "핳": 4479,
      "해": 4480,
      "핵": 4481,
      "핸": 4482,
      "핼": 4483,
      "햄": 4484,
      "햅": 4485,
      "햇": 4486,
      "했": 4487,
      "행": 4488,
      "햌": 4489,
      "햏": 4490,
      "햐": 4491,
      "햑": 4492,
      "햔": 4493,
      "햘": 4494,
      "햝": 4495,
      "햣": 4496,
      "햤": 4497,
      "향": 4498,
      "햬": 4499,
      "헀": 4500,
      "허": 4501,
      "헉": 4502,
      "헌": 4503,
      "헐": 4504,
      "험": 4505,
      "헙": 4506,
      "헛": 4507,
      "헝": 4508,
      "헠": 4509,
      "헣": 4510,
      "헤": 4511,
      "헥": 4512,
      "헨": 4513,
      "헬": 4514,
      "헴": 4515,
      "헵": 4516,
      "헷": 4517,
      "헸": 4518,
      "헹": 4519,
      "헿": 4520,
      "혀": 4521,
      "혁": 4522,
      "현": 4523,
      "혈": 4524,
      "혐": 4525,
      "협": 4526,
      "혓": 4527,
      "혔": 4528,
      "형": 4529,
      "혜": 4530,
      "호": 4531,
      "혹": 4532,
      "혼": 4533,
      "홀": 4534,
      "홈": 4535,
      "홉": 4536,
      "홋": 4537,
      "홍": 4538,
      "홑": 4539,
      "홓": 4540,
      "화": 4541,
      "확": 4542,
      "환": 4543,
      "활": 4544,
      "홥": 4545,
      "홧": 4546,
      "황": 4547,
      "홰": 4548,
      "홱": 4549,
      "횃": 4550,
      "회": 4551,
      "획": 4552,
      "횐": 4553,
      "횔": 4554,
      "횟": 4555,
      "횡": 4556,
      "효": 4557,
      "횬": 4558,
      "횽": 4559,
      "후": 4560,
      "훅": 4561,
      "훈": 4562,
      "훌": 4563,
      "훑": 4564,
      "훔": 4565,
      "훕": 4566,
      "훗": 4567,
      "훙": 4568,
      "훠": 4569,
      "훤": 4570,
      "훨": 4571,
      "훼": 4572,
      "휀": 4573,
      "휑": 4574,
      "휘": 4575,
      "휙": 4576,
      "휜": 4577,
      "휠": 4578,
      "휨": 4579,
      "휩": 4580,
      "휭": 4581,
      "휴": 4582,
      "휼": 4583,
      "흄": 4584,
      "흉": 4585,
      "흐": 4586,
      "흑": 4587,
      "흔": 4588,
      "흘": 4589,
      "흙": 4590,
      "흠": 4591,
      "흡": 4592,
      "흣": 4593,
      "흥": 4594,
      "흩": 4595,
      "흫": 4596,
      "희": 4597,
      "흰": 4598,
      "히": 4599,
      "힉": 4600,
      "힌": 4601,
      "힐": 4602,
      "힘": 4603,
      "힙": 4604,
      "힛": 4605,
      "힝": 4606,
      "힣": 4607,
      "車": 4608,
      "金": 4609,
      "羅": 4610,
      "亂": 4611,
      "勞": 4612,
      "盧": 4613,
      "老": 4614,
      "魯": 4615,
      "論": 4616,
      "樂": 4617,
      "復": 4618,
      "不": 4619,
      "沈": 4620,
      "兩": 4621,
      "梁": 4622,
      "良": 4623,
      "呂": 4624,
      "女": 4625,
      "歷": 4626,
      "年": 4627,
      "聯": 4628,
      "連": 4629,
      "列": 4630,
      "烈": 4631,
      "靈": 4632,
      "領": 4633,
      "例": 4634,
      "禮": 4635,
      "遼": 4636,
      "龍": 4637,
      "劉": 4638,
      "柳": 4639,
      "流": 4640,
      "留": 4641,
      "類": 4642,
      "六": 4643,
      "陸": 4644,
      "律": 4645,
      "利": 4646,
      "吏": 4647,
      "履": 4648,
      "李": 4649,
      "理": 4650,
      "林": 4651,
      "臨": 4652,
      "立": 4653,
      "狀": 4654,
      "茶": 4655,
      "宅": 4656,
      "︎": 4657,
      "️": 4658,
      "！": 4659,
      "＂": 4660,
      "＃": 4661,
      "＄": 4662,
      "％": 4663,
      "＆": 4664,
      "＇": 4665,
      "（": 4666,
      "）": 4667,
      "＊": 4668,
      "＋": 4669,
      "，": 4670,
      "－": 4671,
      "．": 4672,
      "／": 4673,
      "：": 4674,
      "；": 4675,
      "＜": 4676,
      "＝": 4677,
      "＞": 4678,
      "？": 4679,
      "［": 4680,
      "＼": 4681,
      "］": 4682,
      "＿": 4683,
      "ｇ": 4684,
      "ｍ": 4685,
      "ｔ": 4686,
      "｜": 4687,
      "～": 4688,
      "｡": 4689,
      "｢": 4690,
      "｣": 4691,
      "･": 4692,
      "￦": 4693,
      "𖤐": 4694,
      "🇨": 4695,
      "🇯": 4696,
      "🇰": 4697,
      "🇳": 4698,
      "🇵": 4699,
      "🇷": 4700,
      "🇸": 4701,
      "🇹": 4702,
      "🇺": 4703,
      "🌈": 4704,
      "🌊": 4705,
      "🌋": 4706,
      "🌙": 4707,
      "🌚": 4708,
      "🌜": 4709,
      "🌝": 4710,
      "🌞": 4711,
      "🌟": 4712,
      "🌱": 4713,
      "🌳": 4714,
      "🌴": 4715,
      "🌶": 4716,
      "🌷": 4717,
      "🌸": 4718,
      "🌹": 4719,
      "🌺": 4720,
      "🌻": 4721,
      "🌼": 4722,
      "🌿": 4723,
      "🍀": 4724,
      "🍁": 4725,
      "🍂": 4726,
      "🍃": 4727,
      "🍅": 4728,
      "🍆": 4729,
      "🍇": 4730,
      "🍉": 4731,
      "🍊": 4732,
      "🍋": 4733,
      "🍌": 4734,
      "🍎": 4735,
      "🍑": 4736,
      "🍒": 4737,
      "🍓": 4738,
      "🍔": 4739,
      "🍕": 4740,
      "🍖": 4741,
      "🍗": 4742,
      "🍚": 4743,
      "🍜": 4744,
      "🍞": 4745,
      "🍠": 4746,
      "🍦": 4747,
      "🍪": 4748,
      "🍫": 4749,
      "🍭": 4750,
      "🍯": 4751,
      "🍰": 4752,
      "🍲": 4753,
      "🍳": 4754,
      "🍴": 4755,
      "🍺": 4756,
      "🍻": 4757,
      "🍽": 4758,
      "🍾": 4759,
      "🎀": 4760,
      "🎁": 4761,
      "🎂": 4762,
      "🎃": 4763,
      "🎄": 4764,
      "🎆": 4765,
      "🎈": 4766,
      "🎉": 4767,
      "🎊": 4768,
      "🎗": 4769,
      "🎤": 4770,
      "🎧": 4771,
      "🎬": 4772,
      "🎵": 4773,
      "🎶": 4774,
      "🏃": 4775,
      "🏠": 4776,
      "🏻": 4777,
      "🏼": 4778,
      "🏽": 4779,
      "🏾": 4780,
      "🏿": 4781,
      "🐀": 4782,
      "🐂": 4783,
      "🐅": 4784,
      "🐈": 4785,
      "🐍": 4786,
      "🐑": 4787,
      "🐒": 4788,
      "🐓": 4789,
      "🐔": 4790,
      "🐕": 4791,
      "🐖": 4792,
      "🐙": 4793,
      "🐟": 4794,
      "🐣": 4795,
      "🐤": 4796,
      "🐥": 4797,
      "🐦": 4798,
      "🐩": 4799,
      "🐮": 4800,
      "🐯": 4801,
      "🐰": 4802,
      "🐱": 4803,
      "🐴": 4804,
      "🐵": 4805,
      "🐶": 4806,
      "🐷": 4807,
      "🐻": 4808,
      "🐽": 4809,
      "🐾": 4810,
      "👀": 4811,
      "👄": 4812,
      "👅": 4813,
      "👆": 4814,
      "👇": 4815,
      "👈": 4816,
      "👉": 4817,
      "👊": 4818,
      "👋": 4819,
      "👌": 4820,
      "👍": 4821,
      "👎": 4822,
      "👏": 4823,
      "👑": 4824,
      "👣": 4825,
      "👤": 4826,
      "👥": 4827,
      "👦": 4828,
      "👧": 4829,
      "👨": 4830,
      "👩": 4831,
      "👫": 4832,
      "👯": 4833,
      "👴": 4834,
      "👶": 4835,
      "👹": 4836,
      "👺": 4837,
      "👻": 4838,
      "👼": 4839,
      "👽": 4840,
      "👿": 4841,
      "💀": 4842,
      "💃": 4843,
      "💋": 4844,
      "💎": 4845,
      "💐": 4846,
      "💑": 4847,
      "💓": 4848,
      "💕": 4849,
      "💖": 4850,
      "💗": 4851,
      "💘": 4852,
      "💙": 4853,
      "💚": 4854,
      "💛": 4855,
      "💜": 4856,
      "💝": 4857,
      "💞": 4858,
      "💟": 4859,
      "💢": 4860,
      "💣": 4861,
      "💥": 4862,
      "💦": 4863,
      "💧": 4864,
      "💨": 4865,
      "💩": 4866,
      "💪": 4867,
      "💫": 4868,
      "💯": 4869,
      "💰": 4870,
      "💸": 4871,
      "📌": 4872,
      "📍": 4873,
      "📖": 4874,
      "📚": 4875,
      "📢": 4876,
      "📣": 4877,
      "📷": 4878,
      "📸": 4879,
      "🔊": 4880,
      "🔖": 4881,
      "🔜": 4882,
      "🔞": 4883,
      "🔥": 4884,
      "🔨": 4885,
      "🔪": 4886,
      "🔫": 4887,
      "🔴": 4888,
      "🔵": 4889,
      "🔶": 4890,
      "🔸": 4891,
      "🔹": 4892,
      "🕊": 4893,
      "🕯": 4894,
      "🖐": 4895,
      "🖒": 4896,
      "🖕": 4897,
      "🖤": 4898,
      "🗡": 4899,
      "🗣": 4900,
      "😀": 4901,
      "😁": 4902,
      "😂": 4903,
      "😃": 4904,
      "😄": 4905,
      "😅": 4906,
      "😆": 4907,
      "😇": 4908,
      "😈": 4909,
      "😉": 4910,
      "😊": 4911,
      "😋": 4912,
      "😌": 4913,
      "😍": 4914,
      "😎": 4915,
      "😏": 4916,
      "😐": 4917,
      "😑": 4918,
      "😒": 4919,
      "😓": 4920,
      "😔": 4921,
      "😖": 4922,
      "😗": 4923,
      "😘": 4924,
      "😙": 4925,
      "😚": 4926,
      "😛": 4927,
      "😜": 4928,
      "😝": 4929,
      "😞": 4930,
      "😠": 4931,
      "😡": 4932,
      "😢": 4933,
      "😣": 4934,
      "😤": 4935,
      "😥": 4936,
      "😧": 4937,
      "😨": 4938,
      "😩": 4939,
      "😪": 4940,
      "😫": 4941,
      "😬": 4942,
      "😭": 4943,
      "😮": 4944,
      "😰": 4945,
      "😱": 4946,
      "😲": 4947,
      "😳": 4948,
      "😴": 4949,
      "😵": 4950,
      "😶": 4951,
      "😷": 4952,
      "😻": 4953,
      "🙂": 4954,
      "🙃": 4955,
      "🙄": 4956,
      "🙅": 4957,
      "🙆": 4958,
      "🙇": 4959,
      "🙈": 4960,
      "🙉": 4961,
      "🙊": 4962,
      "🙋": 4963,
      "🙌": 4964,
      "🙏": 4965,
      "🚀": 4966,
      "🚨": 4967,
      "🚩": 4968,
      "🚫": 4969,
      "🚴": 4970,
      "🤍": 4971,
      "🤑": 4972,
      "🤓": 4973,
      "🤔": 4974,
      "🤗": 4975,
      "🤘": 4976,
      "🤟": 4977,
      "🤢": 4978,
      "🤣": 4979,
      "🤤": 4980,
      "🤦": 4981,
      "🤧": 4982,
      "🤨": 4983,
      "🤩": 4984,
      "🤪": 4985,
      "🤬": 4986,
      "🤭": 4987,
      "🤮": 4988,
      "🤯": 4989,
      "🤷": 4990,
      "🥄": 4991,
      "🥐": 4992,
      "🥑": 4993,
      "🥕": 4994,
      "🥖": 4995,
      "🥰": 4996,
      "🥳": 4997,
      "🥶": 4998,
      "🥺": 4999,
      "🦀": 5000,
      "🦅": 5001,
      "🧀": 5002,
      "🧚": 5003,
      "🧡": 5004,
      "##t": 5005,
      "##e": 5006,
      "##l": 5007,
      "##p": 5008,
      "##h": 5009,
      "##a": 5010,
      "##n": 5011,
      "##s": 5012,
      "##d": 5013,
      "##ㅏ": 5014,
      "##ㅋ": 5015,
      "##ㄱ": 5016,
      "##거": 5017,
      "##네": 5018,
      "##태": 5019,
      "##때": 5020,
      "##폐": 5021,
      "##색": 5022,
      "##ㅜ": 5023,
      "##유": 5024,
      "##통": 5025,
      "##기": 5026,
      "##한": 5027,
      "##💫": 5028,
      "##일": 5029,
      "##문": 5030,
      "##슬": 5031,
      "##람": 5032,
      "##이": 5033,
      "##ㄹ": 5034,
      "##무": 5035,
      "##고": 5036,
      "##죄": 5037,
      "##로": 5038,
      "##떡": 5039,
      "##u": 5040,
      "##학": 5041,
      "##생": 5042,
      "##작": 5043,
      "##품": 5044,
      "##중": 5045,
      "##등": 5046,
      "##들": 5047,
      "##은": 5048,
      "##m": 5049,
      "##o": 5050,
      "##ㅠ": 5051,
      "##식": 5052,
      "##탁": 5053,
      "##리": 5054,
      "##템": 5055,
      "##포": 5056,
      "##당": 5057,
      "##방": 5058,
      "##송": 5059,
      "##큐": 5060,
      "##해": 5061,
      "##써": 5062,
      "##욥": 5063,
      "##본": 5064,
      "##위": 5065,
      "##망": 5066,
      "##했": 5067,
      "##노": 5068,
      "##국": 5069,
      "##민": 5070,
      "##보": 5071,
      "##🏿": 5072,
      "##💪": 5073,
      "##💙": 5074,
      "##r": 5075,
      "##f": 5076,
      "##ㅊ": 5077,
      "##ㅁ": 5078,
      "##ㄴ": 5079,
      "##ㅇ": 5080,
      "##ㆍ": 5081,
      "##합": 5082,
      "##니": 5083,
      "##다": 5084,
      "##ㅟ": 5085,
      "##분": 5086,
      "##점": 5087,
      "##과": 5088,
      "##우": 5089,
      "##어": 5090,
      "##루": 5091,
      "##푸": 5092,
      "##여": 5093,
      "##배": 5094,
      "##ㅣ": 5095,
      "##미": 5096,
      "##나": 5097,
      "##퍼": 5098,
      "##뤼": 5099,
      "##프": 5100,
      "##또": 5101,
      "##찬": 5102,
      "##을": 5103,
      "##듯": 5104,
      "##하": 5105,
      "##0": 5106,
      "##9": 5107,
      "##4": 5108,
      "##3": 5109,
      "##드": 5110,
      "##라": 5111,
      "##친": 5112,
      "##구": 5113,
      "##탈": 5114,
      "##목": 5115,
      "##적": 5116,
      "##성": 5117,
      "##책": 5118,
      "##임": 5119,
      "##찰": 5120,
      "##의": 5121,
      "##E": 5122,
      "##C": 5123,
      "##H": 5124,
      "##N": 5125,
      "##O": 5126,
      "##P": 5127,
      "##A": 5128,
      "##R": 5129,
      "##K": 5130,
      "##랜": 5131,
      "##i": 5132,
      "##g": 5133,
      "##y": 5134,
      "##변": 5135,
      "##경": 5136,
      "##희": 5137,
      "##リ": 5138,
      "##ィ": 5139,
      "##7": 5140,
      "##8": 5141,
      "##2": 5142,
      "##6": 5143,
      "##남": 5144,
      "##낭": 5145,
      "##야": 5146,
      "##1": 5147,
      "##롤": 5148,
      "##영": 5149,
      "##러": 5150,
      "##시": 5151,
      "##아": 5152,
      "##랑": 5153,
      "##스": 5154,
      "##용": 5155,
      "##는": 5156,
      "##것": 5157,
      "##같": 5158,
      "##넹": 5159,
      "##ㅡ": 5160,
      "##b": 5161,
      "##T": 5162,
      "##J": 5163,
      "##X": 5164,
      "##와": 5165,
      "##q": 5166,
      "##씨": 5167,
      "##도": 5168,
      "##B": 5169,
      "##L": 5170,
      "##W": 5171,
      "##오": 5172,
      "##으": 5173,
      "##제": 5174,
      "##교": 5175,
      "##い": 5176,
      "##う": 5177,
      "##こ": 5178,
      "##と": 5179,
      "##に": 5180,
      "##つ": 5181,
      "##て": 5182,
      "##엄": 5183,
      "##마": 5184,
      "##가": 5185,
      "##주": 5186,
      "##에": 5187,
      "##만": 5188,
      "##혁": 5189,
      "##v": 5190,
      "##피": 5191,
      "##퓌": 5192,
      "##추": 5193,
      "##공": 5194,
      "##정": 5195,
      "##역": 5196,
      "##ㅉ": 5197,
      "##탕": 5198,
      "##지": 5199,
      "##사": 5200,
      "##끼": 5201,
      "##비": 5202,
      "##장": 5203,
      "##애": 5204,
      "##부": 5205,
      "##산": 5206,
      "##대": 5207,
      "##인": 5208,
      "##천": 5209,
      "##전": 5210,
      "##광": 5211,
      "##충": 5212,
      "##참": 5213,
      "##I": 5214,
      "##c": 5215,
      "##냐": 5216,
      "##U": 5217,
      "##F": 5218,
      "##🔥": 5219,
      "##깨": 5220,
      "##빼": 5221,
      "##박": 5222,
      "##😊": 5223,
      "##🌹": 5224,
      "##반": 5225,
      "##ㅈ": 5226,
      "##소": 5227,
      "##바": 5228,
      "##개": 5229,
      "##발": 5230,
      "##케": 5231,
      "##팅": 5232,
      "##새": 5233,
      "##키": 5234,
      "##회": 5235,
      "##벤": 5236,
      "##처": 5237,
      "##캐": 5238,
      "##털": 5239,
      "##신": 5240,
      "##카": 5241,
      "##험": 5242,
      "##얇": 5243,
      "##붙": 5244,
      "##옷": 5245,
      "##ㄷ": 5246,
      "##ㅍ": 5247,
      "##ㅎ": 5248,
      "##ㅅ": 5249,
      "##ㅂ": 5250,
      "##ㅌ": 5251,
      "##월": 5252,
      "##딪": 5253,
      "##랃": 5254,
      "##룽": 5255,
      "##트": 5256,
      "##타": 5257,
      "##토": 5258,
      "##모": 5259,
      "##떨": 5260,
      "##겠": 5261,
      "##까": 5262,
      "##커": 5263,
      "##w": 5264,
      "##궈": 5265,
      "##런": 5266,
      "##럼": 5267,
      "##k": 5268,
      "##략": 5269,
      "##재": 5270,
      "##록": 5271,
      "##웰": 5272,
      "##평": 5273,
      "##조": 5274,
      "##불": 5275,
      "##뿐": 5276,
      "##너": 5277,
      "##저": 5278,
      "##ㅓ": 5279,
      "##더": 5280,
      "##ㅐ": 5281,
      "##내": 5282,
      "##ㅔ": 5283,
      "##쩌": 5284,
      "##덛": 5285,
      "##M": 5286,
      "##관": 5287,
      "##첨": 5288,
      "##단": 5289,
      "##업": 5290,
      "##켈": 5291,
      "##세": 5292,
      "##르": 5293,
      "##면": 5294,
      "##잔": 5295,
      "##상": 5296,
      "##수": 5297,
      "##베": 5298,
      "##옹": 5299,
      "##풀": 5300,
      "##딱": 5301,
      "##클": 5302,
      "##란": 5303,
      "##잇": 5304,
      "##서": 5305,
      "##5": 5306,
      "##레": 5307,
      "##혼": 5308,
      "##자": 5309,
      "##규": 5310,
      "##플": 5311,
      "##틱": 5312,
      "##벼": 5313,
      "##놈": 5314,
      "##른": 5315,
      "##끈": 5316,
      "##할": 5317,
      "##브": 5318,
      "##겨": 5319,
      "##울": 5320,
      "##싹": 5321,
      "##블": 5322,
      "##럭": 5323,
      "##알": 5324,
      "##룐": 5325,
      "##쳐": 5326,
      "##종": 5327,
      "##섭": 5328,
      "##악": 5329,
      "##ㅆ": 5330,
      "##호": 5331,
      "##끔": 5332,
      "##ア": 5333,
      "##ル": 5334,
      "##ド": 5335,
      "##외": 5336,
      "##요": 5337,
      "##얀": 5338,
      "##Y": 5339,
      "##쉬": 5340,
      "##S": 5341,
      "##령": 5342,
      "##눈": 5343,
      "##썹": 5344,
      "##데": 5345,
      "##j": 5346,
      "##x": 5347,
      "##곳": 5348,
      "##며": 5349,
      "##렁": 5350,
      "##돟": 5351,
      "##채": 5352,
      "##엉": 5353,
      "##터": 5354,
      "##계": 5355,
      "##균": 5356,
      "##크": 5357,
      "##ㄶ": 5358,
      "##뜨": 5359,
      "##련": 5360,
      "##댓": 5361,
      "##글": 5362,
      "##삭": 5363,
      "##곸": 5364,
      "##히": 5365,
      "##벌": 5366,
      "##느": 5367,
      "##ᆞ": 5368,
      "##깃": 5369,
      "##버": 5370,
      "##선": 5371,
      "##물": 5372,
      "##었": 5373,
      "##효": 5374,
      "##심": 5375,
      "##운": 5376,
      "##온": 5377,
      "##김": 5378,
      "##황": 5379,
      "##환": 5380,
      "##려": 5381,
      "##걸": 5382,
      "##게": 5383,
      "##달": 5384,
      "##안": 5385,
      "##봉": 5386,
      "##돼": 5387,
      "##음": 5388,
      "##되": 5389,
      "##길": 5390,
      "##약": 5391,
      "##철": 5392,
      "##진": 5393,
      "##💜": 5394,
      "##렌": 5395,
      "##티": 5396,
      "##깐": 5397,
      "##ㅑ": 5398,
      "##랸": 5399,
      "##근": 5400,
      "##í": 5401,
      "##머": 5402,
      "##디": 5403,
      "##습": 5404,
      "##돠": 5405,
      "##🍔": 5406,
      "##😳": 5407,
      "##흐": 5408,
      "##억": 5409,
      "##래": 5410,
      "##ㅗ": 5411,
      "##먜": 5412,
      "##ㄸ": 5413,
      "##칼": 5414,
      "##뮈": 5415,
      "##먹": 5416,
      "##각": 5417,
      "##받": 5418,
      "##볼": 5419,
      "##파": 5420,
      "##ς": 5421,
      "##측": 5422,
      "##형": 5423,
      "##빗": 5424,
      "##헤": 5425,
      "##쉔": 5426,
      "##융": 5427,
      "##초": 5428,
      "##텨": 5429,
      "##패": 5430,
      "##뮬": 5431,
      "##촉": 5432,
      "##감": 5433,
      "##속": 5434,
      "##옄": 5435,
      "##치": 5436,
      "##존": 5437,
      "##슨": 5438,
      "##항": 5439,
      "##력": 5440,
      "##쩍": 5441,
      "##ㅕ": 5442,
      "##톡": 5443,
      "##ㄿ": 5444,
      "##풍": 5445,
      "##웅": 5446,
      "##짓": 5447,
      "##택": 5448,
      "##원": 5449,
      "##몽": 5450,
      "##엏": 5451,
      "##허": 5452,
      "##잏": 5453,
      "##ᆢ": 5454,
      "##퓨": 5455,
      "##땟": 5456,
      "##따": 5457,
      "##션": 5458,
      "##😁": 5459,
      "##름": 5460,
      "##화": 5461,
      "##츈": 5462,
      "##급": 5463,
      "##매": 5464,
      "##못": 5465,
      "##닐": 5466,
      "##섹": 5467,
      "##판": 5468,
      "##입": 5469,
      "##싄": 5470,
      "##살": 5471,
      "##궁": 5472,
      "##를": 5473,
      "##핀": 5474,
      "##셋": 5475,
      "##즘": 5476,
      "##틴": 5477,
      "##퐐": 5478,
      "##섶": 5479,
      "##휴": 5480,
      "##ㅛ": 5481,
      "##슈": 5482,
      "##츄": 5483,
      "##셔": 5484,
      "##행": 5485,
      "##님": 5486,
      "##께": 5487,
      "##두": 5488,
      "##쫀": 5489,
      "##득": 5490,
      "##닥": 5491,
      "##빨": 5492,
      "##극": 5493,
      "##그": 5494,
      "##강": 5495,
      "##동": 5496,
      "##댜": 5497,
      "##ل": 5498,
      "##و": 5499,
      "##춤": 5500,
      "##코": 5501,
      "##뽀": 5502,
      "##십": 5503,
      "##껄": 5504,
      "##져": 5505,
      "##린": 5506,
      "##닷": 5507,
      "##컴": 5508,
      "##함": 5509,
      "##ㅀ": 5510,
      "##연": 5511,
      "##넘": 5512,
      "##좋": 5513,
      "##승": 5514,
      "##찜": 5515,
      "##꽉": 5516,
      "##쪼": 5517,
      "##않": 5518,
      "##ь": 5519,
      "##체": 5520,
      "##쟈": 5521,
      "##랴": 5522,
      "##z": 5523,
      "##설": 5524,
      "##명": 5525,
      "##튼": 5526,
      "##든": 5527,
      "##투": 5528,
      "##갓": 5529,
      "##넉": 5530,
      "##삿": 5531,
      "##줄": 5532,
      "##았": 5533,
      "##갱": 5534,
      "##획": 5535,
      "##뢰": 5536,
      "##팔": 5537,
      "##윤": 5538,
      "##쁩": 5539,
      "##손": 5540,
      "##확": 5541,
      "##질": 5542,
      "##창": 5543,
      "##😂": 5544,
      "##👍": 5545,
      "##🏻": 5546,
      "##읏": 5547,
      "##흘": 5548,
      "##농": 5549,
      "##짘": 5550,
      "##짇": 5551,
      "##쨔": 5552,
      "##🎗": 5553,
      "##테": 5554,
      "##차": 5555,
      "##🇷": 5556,
      "##ㄳ": 5557,
      "##핰": 5558,
      "##숙": 5559,
      "##큰": 5560,
      "##혜": 5561,
      "##건": 5562,
      "##준": 5563,
      "##군": 5564,
      "##👽": 5565,
      "##💀": 5566,
      "##깔": 5567,
      "##찻": 5568,
      "##댔": 5569,
      "##청": 5570,
      "##놀": 5571,
      "##예": 5572,
      "##징": 5573,
      "##뉴": 5574,
      "##ä": 5575,
      "##벽": 5576,
      "##빠": 5577,
      "##🙌": 5578,
      "##죽": 5579,
      "##솥": 5580,
      "##ㄻ": 5581,
      "##잉": 5582,
      "##침": 5583,
      "##밀": 5584,
      "##귀": 5585,
      "##옥": 5586,
      "##메": 5587,
      "##현": 5588,
      "##컬": 5589,
      "##집": 5590,
      "##잘": 5591,
      "##눅": 5592,
      "##숭": 5593,
      "##찮": 5594,
      "##액": 5595,
      "##됏": 5596,
      "##G": 5597,
      "##킨": 5598,
      "##냇": 5599,
      "##빛": 5600,
      "##킁": 5601,
      "##싶": 5602,
      "##🏽": 5603,
      "##🧡": 5604,
      "##ㄲ": 5605,
      "##낌": 5606,
      "##혀": 5607,
      "##년": 5608,
      "##실": 5609,
      "##병": 5610,
      "##북": 5611,
      "##삼": 5612,
      "##앙": 5613,
      "##녕": 5614,
      "##늘": 5615,
      "##😍": 5616,
      "##😘": 5617,
      "##흑": 5618,
      "##뀐": 5619,
      "##취": 5620,
      "##졸": 5621,
      "##쇠": 5622,
      "##쿠": 5623,
      "##료": 5624,
      "##켜": 5625,
      "##튜": 5626,
      "##캬": 5627,
      "##므": 5628,
      "##뭄": 5629,
      "##순": 5630,
      "##즈": 5631,
      "##젠": 5632,
      "##간": 5633,
      "##직": 5634,
      "##덥": 5635,
      "##술": 5636,
      "##Z": 5637,
      "##햇": 5638,
      "##후": 5639,
      "##맞": 5640,
      "##빙": 5641,
      "##젖": 5642,
      "##힌": 5643,
      "##○": 5644,
      "##²": 5645,
      "##쩝": 5646,
      "##축": 5647,
      "##켓": 5648,
      "##객": 5649,
      "##쭉": 5650,
      "##렸": 5651,
      "##특": 5652,
      "##맛": 5653,
      "##탱": 5654,
      "##랙": 5655,
      "##😭": 5656,
      "##엣": 5657,
      "##D": 5658,
      "##き": 5659,
      "##ら": 5660,
      "##ん": 5661,
      "##결": 5662,
      "##앞": 5663,
      "##응": 5664,
      "##워": 5665,
      "##뻔": 5666,
      "##쓰": 5667,
      "##향": 5668,
      "##류": 5669,
      "##🙃": 5670,
      "##🙂": 5671,
      "##난": 5672,
      "##양": 5673,
      "##횡": 5674,
      "##깊": 5675,
      "##잡": 5676,
      "##담": 5677,
      "##쾌": 5678,
      "##락": 5679,
      "##쩜": 5680,
      "##쥬": 5681,
      "##쇼": 5682,
      "##골": 5683,
      "##닌": 5684,
      "##론": 5685,
      "##편": 5686,
      "##긱": 5687,
      "##긋": 5688,
      "##릭": 5689,
      "##ᄋ": 5690,
      "##림": 5691,
      "##델": 5692,
      "##링": 5693,
      "##푠": 5694,
      "##꺼": 5695,
      "##착": 5696,
      "##찡": 5697,
      "##힝": 5698,
      "##렇": 5699,
      "##킹": 5700,
      "##표": 5701,
      "##척": 5702,
      "##괴": 5703,
      "##햬": 5704,
      "##떄": 5705,
      "##릉": 5706,
      "##맹": 5707,
      "##왕": 5708,
      "##높": 5709,
      "##ナ": 5710,
      "##왈": 5711,
      "##쑈": 5712,
      "##필": 5713,
      "##된": 5714,
      "##좌": 5715,
      "##흥": 5716,
      "##독": 5717,
      "##증": 5718,
      "##곡": 5719,
      "##훈": 5720,
      "##휘": 5721,
      "##법": 5722,
      "##말": 5723,
      "##똥": 5724,
      "##댱": 5725,
      "##없": 5726,
      "##있": 5727,
      "##날": 5728,
      "##헬": 5729,
      "##💰": 5730,
      "##🐶": 5731,
      "##🐷": 5732,
      "##🐒": 5733,
      "##🐵": 5734,
      "##곰": 5735,
      "##족": 5736,
      "##쌕": 5737,
      "##복": 5738,
      "##긍": 5739,
      "##싸": 5740,
      "##엔": 5741,
      "##뮤": 5742,
      "##석": 5743,
      "##퀘": 5744,
      "##완": 5745,
      "##듀": 5746,
      "##🍃": 5747,
      "##률": 5748,
      "##언": 5749,
      "##춘": 5750,
      "##암": 5751,
      "##둥": 5752,
      "##퀴": 5753,
      "##겡": 5754,
      "##량": 5755,
      "##딧": 5756,
      "##싣": 5757,
      "##꾸": 5758,
      "##누": 5759,
      "##홋": 5760,
      "##🐕": 5761,
      "##백": 5762,
      "##샤": 5763,
      "##💚": 5764,
      "##🤩": 5765,
      "##쁜": 5766,
      "##쎄": 5767,
      "##좀": 5768,
      "##옺": 5769,
      "##잗": 5770,
      "##τ": 5771,
      "##δ": 5772,
      "##ι": 5773,
      "##ο": 5774,
      "##ν": 5775,
      "##핏": 5776,
      "##쯔": 5777,
      "##믜": 5778,
      "##믄": 5779,
      "##츰": 5780,
      "##즌": 5781,
      "##늪": 5782,
      "##쑝": 5783,
      "##죠": 5784,
      "##떼": 5785,
      "##샜": 5786,
      "##헌": 5787,
      "##늬": 5788,
      "##출": 5789,
      "##갑": 5790,
      "##층": 5791,
      "##탄": 5792,
      "##겔": 5793,
      "##곱": 5794,
      "##렀": 5795,
      "##힙": 5796,
      "##깡": 5797,
      "##녀": 5798,
      "##넌": 5799,
      "##젛": 5800,
      "##굿": 5801,
      "##샵": 5802,
      "##П": 5803,
      "##б": 5804,
      "##얼": 5805,
      "##롭": 5806,
      "##갈": 5807,
      "##닏": 5808,
      "##뎌": 5809,
      "##쫌": 5810,
      "##금": 5811,
      "##익": 5812,
      "##압": 5813,
      "##🇵": 5814,
      "##💩": 5815,
      "##🐔": 5816,
      "##챠": 5817,
      "##널": 5818,
      "##넷": 5819,
      "##홍": 5820,
      "##핑": 5821,
      "##염": 5822,
      "##겹": 5823,
      "##륭": 5824,
      "##р": 5825,
      "##о": 5826,
      "##в": 5827,
      "##е": 5828,
      "##н": 5829,
      "##ы": 5830,
      "##х": 5831,
      "##や": 5832,
      "##お": 5833,
      "##활": 5834,
      "##꿩": 5835,
      "##봐": 5836,
      "##ㄺ": 5837,
      "##능": 5838,
      "##힐": 5839,
      "##육": 5840,
      "##💕": 5841,
      "##V": 5842,
      "##⅔": 5843,
      "##값": 5844,
      "##줘": 5845,
      "##뺑": 5846,
      "##훼": 5847,
      "##챃": 5848,
      "##턴": 5849,
      "##л": 5850,
      "##🤨": 5851,
      "##🔊": 5852,
      "##△": 5853,
      "##딛": 5854,
      "##앟": 5855,
      "##졌": 5856,
      "##걍": 5857,
      "##먼": 5858,
      "##뭉": 5859,
      "##번": 5860,
      "##ö": 5861,
      "##엌": 5862,
      "##논": 5863,
      "##륜": 5864,
      "##뻐": 5865,
      "##촌": 5866,
      "##별": 5867,
      "##だ": 5868,
      "##줴": 5869,
      "##쥐": 5870,
      "##던": 5871,
      "##펠": 5872,
      "##념": 5873,
      "##움": 5874,
      "##쁘": 5875,
      "##뫼": 5876,
      "##👏": 5877,
      "##뇬": 5878,
      "##さ": 5879,
      "##ち": 5880,
      "##욯": 5881,
      "##낑": 5882,
      "##땀": 5883,
      "##뺐": 5884,
      "##â": 5885,
      "##혔": 5886,
      "##컨": 5887,
      "##읍": 5888,
      "##쟎": 5889,
      "##립": 5890,
      "##냉": 5891,
      "##섯": 5892,
      "##돌": 5893,
      "##욧": 5894,
      "##れ": 5895,
      "##た": 5896,
      "##か": 5897,
      "##ニ": 5898,
      "##ー": 5899,
      "##욪": 5900,
      "##칸": 5901,
      "##ㅚ": 5902,
      "##헐": 5903,
      "##뀌": 5904,
      "##쓸": 5905,
      "##랄": 5906,
      "##🤣": 5907,
      "##햐": 5908,
      "##댑": 5909,
      "##젤": 5910,
      "##돈": 5911,
      "##올": 5912,
      "##ü": 5913,
      "##텐": 5914,
      "##열": 5915,
      "##덕": 5916,
      "##🇰": 5917,
      "##🇯": 5918,
      "##🇨": 5919,
      "##🇳": 5920,
      "##검": 5921,
      "##븯": 5922,
      "##は": 5923,
      "##り": 5924,
      "##к": 5925,
      "##у": 5926,
      "##п": 5927,
      "##쉨": 5928,
      "##맘": 5929,
      "##벨": 5930,
      "##맥": 5931,
      "##꿔": 5932,
      "##납": 5933,
      "##힘": 5934,
      "##🤪": 5935,
      "##😜": 5936,
      "##묘": 5937,
      "##츠": 5938,
      "##례": 5939,
      "##절": 5940,
      "##렴": 5941,
      "##ㄵ": 5942,
      "##깝": 5943,
      "##κ": 5944,
      "##μ": 5945,
      "##봇": 5946,
      "##폭": 5947,
      "##몰": 5948,
      "##랐": 5949,
      "##얔": 5950,
      "##뎅": 5951,
      "##🥑": 5952,
      "##헉": 5953,
      "##🐀": 5954,
      "##🐣": 5955,
      "##릿": 5956,
      "##찌": 5957,
      "##뭐": 5958,
      "##쉐": 5959,
      "##é": 5960,
      "##줌": 5961,
      "##폰": 5962,
      "##녹": 5963,
      "##츌": 5964,
      "##율": 5965,
      "##뇨": 5966,
      "##및": 5967,
      "##뷰": 5968,
      "##툇": 5969,
      "##많": 5970,
      "##랬": 5971,
      "##떠": 5972,
      "##겁": 5973,
      "##짜": 5974,
      "##띠": 5975,
      "##권": 5976,
      "##Q": 5977,
      "##봥": 5978,
      "##였": 5979,
      "##젇": 5980,
      "##킴": 5981,
      "##뻥": 5982,
      "##럴": 5983,
      "##빡": 5984,
      "##됐": 5985,
      "##멏": 5986,
      "##협": 5987,
      "##됫": 5988,
      "##둑": 5989,
      "##ᴇ": 5990,
      "##흔": 5991,
      "##둔": 5992,
      "##ン": 5993,
      "##プ": 5994,
      "##バ": 5995,
      "##긴": 5996,
      "##둘": 5997,
      "##뜩": 5998,
      "##し": 5999,
      "##늉": 6000,
      "##쓴": 6001,
      "##낯": 6002,
      "##귄": 6003,
      "##넣": 6004,
      "##범": 6005,
      "##폴": 6006,
      "##총": 6007,
      "##콜": 6008,
      "##븳": 6009,
      "##쪽": 6010,
      "##앜": 6011,
      "##멘": 6012,
      "##뼈": 6013,
      "##곤": 6014,
      "##좃": 6015,
      "##놓": 6016,
      "##될": 6017,
      "##졓": 6018,
      "##페": 6019,
      "##욘": 6020,
      "##첮": 6021,
      "##즙": 6022,
      "##렘": 6023,
      "##웨": 6024,
      "##꼭": 6025,
      "##렝": 6026,
      "##🎉": 6027,
      "##🍺": 6028,
      "##왓": 6029,
      "##갗": 6030,
      "##숑": 6031,
      "##랼": 6032,
      "##あ": 6033,
      "##ま": 6034,
      "##な": 6035,
      "##맑": 6036,
      "##늠": 6037,
      "##옼": 6038,
      "##빟": 6039,
      "##텅": 6040,
      "##る": 6041,
      "##끄": 6042,
      "##럽": 6043,
      "##격": 6044,
      "##끓": 6045,
      "##텀": 6046,
      "##️": 6047,
      "##끗": 6048,
      "##😛": 6049,
      "##럄": 6050,
      "##🍎": 6051,
      "##셍": 6052,
      "##센": 6053,
      "##붕": 6054,
      "##녜": 6055,
      "##잠": 6056,
      "##멸": 6057,
      "##т": 6058,
      "##ц": 6059,
      "##땁": 6060,
      "##칠": 6061,
      "##빋": 6062,
      "##냄": 6063,
      "##륵": 6064,
      "##괞": 6065,
      "##쌍": 6066,
      "##싱": 6067,
      "##싯": 6068,
      "##쟁": 6069,
      "##갸": 6070,
      "##탐": 6071,
      "##눔": 6072,
      "##с": 6073,
      "##м": 6074,
      "##ㅝ": 6075,
      "##눌": 6076,
      "##캡": 6077,
      "##빵": 6078,
      "##갔": 6079,
      "##칭": 6080,
      "##롱": 6081,
      "##찾": 6082,
      "##＋": 6083,
      "##팡": 6084,
      "##꾼": 6085,
      "##훠": 6086,
      "##봄": 6087,
      "##뵈": 6088,
      "##😨": 6089,
      "##븟": 6090,
      "##팜": 6091,
      "##넛": 6092,
      "##멍": 6093,
      "##왜": 6094,
      "##챦": 6095,
      "##🥰": 6096,
      "##콧": 6097,
      "##샹": 6098,
      "##😉": 6099,
      "##엥": 6100,
      "##뜻": 6101,
      "##밧": 6102,
      "##닠": 6103,
      "##엇": 6104,
      "##몬": 6105,
      "##ᴱ": 6106,
      "##슘": 6107,
      "##왐": 6108,
      "##뜯": 6109,
      "##ラ": 6110,
      "##쿄": 6111,
      "##á": 6112,
      "##팀": 6113,
      "##숩": 6114,
      "##뉘": 6115,
      "##👴": 6116,
      "##┃": 6117,
      "##틀": 6118,
      "##ε": 6119,
      "##퇴": 6120,
      "##ㅙ": 6121,
      "##몸": 6122,
      "##😆": 6123,
      "##짖": 6124,
      "##뇌": 6125,
      "##콩": 6126,
      "##슴": 6127,
      "##팩": 6128,
      "##냣": 6129,
      "##렐": 6130,
      "##꼬": 6131,
      "##접": 6132,
      "##и": 6133,
      "##а": 6134,
      "##겟": 6135,
      "##탸": 6136,
      "##몾": 6137,
      "##샛": 6138,
      "##덜": 6139,
      "##ㅞ": 6140,
      "##펴": 6141,
      "##쵸": 6142,
      "##マ": 6143,
      "##꾿": 6144,
      "##났": 6145,
      "##탉": 6146,
      "##막": 6147,
      "##녁": 6148,
      "##뿅": 6149,
      "##빈": 6150,
      "##🌱": 6151,
      "##홀": 6152,
      "##퍄": 6153,
      "##샌": 6154,
      "##옻": 6155,
      "##샀": 6156,
      "##👹": 6157,
      "##😈": 6158,
      "##👿": 6159,
      "##😡": 6160,
      "##😠": 6161,
      "##넝": 6162,
      "##최": 6163,
      "##⅓": 6164,
      "##룩": 6165,
      "##냨": 6166,
      "##쇽": 6167,
      "##쏘": 6168,
      "##굳": 6169,
      "##눙": 6170,
      "##닞": 6171,
      "##됩": 6172,
      "##쉽": 6173,
      "##텔": 6174,
      "##촬": 6175,
      "##칙": 6176,
      "##ㅃ": 6177,
      "##킷": 6178,
      "##뼛": 6179,
      "##닼": 6180,
      "##냈": 6181,
      "##눠": 6182,
      "##듬": 6183,
      "##샷": 6184,
      "##룡": 6185,
      "##🍁": 6186,
      "##🍂": 6187,
      "##쿤": 6188,
      "##봤": 6189,
      "##좝": 6190,
      "##싷": 6191,
      "##셩": 6192,
      "##킬": 6193,
      "##뜸": 6194,
      "##랰": 6195,
      "##🌺": 6196,
      "##🌻": 6197,
      "##큿": 6198,
      "##됴": 6199,
      "##룬": 6200,
      "##냑": 6201,
      "##🍻": 6202,
      "##깜": 6203,
      "##닭": 6204,
      "##😤": 6205,
      "##젝": 6206,
      "##믹": 6207,
      "##쯤": 6208,
      "##딸": 6209,
      "##넴": 6210,
      "##답": 6211,
      "##늡": 6212,
      "##딘": 6213,
      "##🐴": 6214,
      "##닉": 6215,
      "##즉": 6216,
      "##ᴏ": 6217,
      "##딩": 6218,
      "##ш": 6219,
      "##г": 6220,
      "##뱌": 6221,
      "##땅": 6222,
      "##얌": 6223,
      "##🖤": 6224,
      "##끠": 6225,
      "##렂": 6226,
      "##멀": 6227,
      "##ж": 6228,
      "##넼": 6229,
      "##흠": 6230,
      "##욕": 6231,
      "##텝": 6232,
      "##💋": 6233,
      "##좆": 6234,
      "##윙": 6235,
      "##렬": 6236,
      "##퓰": 6237,
      "##💖": 6238,
      "##잖": 6239,
      "##😄": 6240,
      "##줬": 6241,
      "##🌙": 6242,
      "##ᴀ": 6243,
      "##💯": 6244,
      "##샥": 6245,
      "##з": 6246,
      "##돚": 6247,
      "##샘": 6248,
      "##댸": 6249,
      "##째": 6250,
      "##쟤": 6251,
      "##퍠": 6252,
      "##쨰": 6253,
      "##갰": 6254,
      "##쨩": 6255,
      "##쎈": 6256,
      "##톤": 6257,
      "##팁": 6258,
      "##햑": 6259,
      "##픽": 6260,
      "##틸": 6261,
      "##왑": 6262,
      "##🌚": 6263,
      "##갹": 6264,
      "##봅": 6265,
      "##얗": 6266,
      "##뱅": 6267,
      "##ᅡ": 6268,
      "##ᄉ": 6269,
      "##뇸": 6270,
      "##🦅": 6271,
      "##🍜": 6272,
      "##잼": 6273,
      "##끝": 6274,
      "##륨": 6275,
      "##듐": 6276,
      "##귣": 6277,
      "##륀": 6278,
      "##얘": 6279,
      "##볶": 6280,
      "##흄": 6281,
      "##쟝": 6282,
      "##흉": 6283,
      "##짐": 6284,
      "##🙆": 6285,
      "##갤": 6286,
      "##낼": 6287,
      "##찍": 6288,
      "##헣": 6289,
      "##홓": 6290,
      "##솔": 6291,
      "##⑦": 6292,
      "##③": 6293,
      "##⑥": 6294,
      "##램": 6295,
      "##👫": 6296,
      "##툐": 6297,
      "##싫": 6298,
      "##굴": 6299,
      "##죙": 6300,
      "##줍": 6301,
      "##툽": 6302,
      "##슙": 6303,
      "##샴": 6304,
      "##쿡": 6305,
      "##즁": 6306,
      "##돋": 6307,
      "##낫": 6308,
      "##튕": 6309,
      "##🐦": 6310,
      "##빕": 6311,
      "##🍭": 6312,
      "##🌈": 6313,
      "##🌸": 6314,
      "##앚": 6315,
      "##랏": 6316,
      "##🌷": 6317,
      "##뎈": 6318,
      "##헠": 6319,
      "##혈": 6320,
      "##ㅢ": 6321,
      "##싀": 6322,
      "##믕": 6323,
      "##릎": 6324,
      "##쭝": 6325,
      "##쉰": 6326,
      "##렵": 6327,
      "##😎": 6328,
      "##덧": 6329,
      "##🐓": 6330,
      "##🤗": 6331,
      "##꽁": 6332,
      "##낸": 6333,
      "##슥": 6334,
      "##앗": 6335,
      "##옫": 6336,
      "##찿": 6337,
      "##톱": 6338,
      "##덤": 6339,
      "##쒼": 6340,
      "##💝": 6341,
      "##썌": 6342,
      "##🌶": 6343,
      "##빅": 6344,
      "##θ": 6345,
      "##ω": 6346,
      "##탑": 6347,
      "##밥": 6348,
      "##늣": 6349,
      "##🤷": 6350,
      "##쉑": 6351,
      "##넓": 6352,
      "##🏼": 6353,
      "##뇽": 6354,
      "##꽈": 6355,
      "##🍦": 6356,
      "##쏟": 6357,
      "##껴": 6358,
      "##킈": 6359,
      "##똘": 6360,
      "##쩡": 6361,
      "##츤": 6362,
      "##웃": 6363,
      "##꼼": 6364,
      "##😣": 6365,
      "##😞": 6366,
      "##빤": 6367,
      "##옵": 6368,
      "##̵": 6369,
      "##̴": 6370,
      "##̷": 6371,
      "##͈": 6372,
      "##🍌": 6373,
      "##뒤": 6374,
      "##핳": 6375,
      "##둣": 6376,
      "##쭵": 6377,
      "##벡": 6378,
      "##っ": 6379,
      "##も": 6380,
      "##닿": 6381,
      "##벚": 6382,
      "##쉴": 6383,
      "##칵": 6384,
      "##뽄": 6385,
      "##👌": 6386,
      "##쟉": 6387,
      "##욱": 6388,
      "##🍽": 6389,
      "##ス": 6390,
      "##븡": 6391,
      "##뭇": 6392,
      "##ゃ": 6393,
      "##콘": 6394,
      "##둬": 6395,
      "##뢔": 6396,
      "##쿵": 6397,
      "##💃": 6398,
      "##😱": 6399,
      "##ρ": 6400,
      "##ㅘ": 6401,
      "##냥": 6402,
      "##앰": 6403,
      "##젼": 6404,
      "##짤": 6405,
      "##뒷": 6406,
      "##욤": 6407,
      "##😏": 6408,
      "##먀": 6409,
      "##먄": 6410,
      "##헝": 6411,
      "##밋": 6412,
      "##엳": 6413,
      "##긑": 6414,
      "##🌊": 6415,
      "##💨": 6416,
      "##엘": 6417,
      "##첸": 6418,
      "##й": 6419,
      "##ク": 6420,
      "##츨": 6421,
      "##윗": 6422,
      "##윈": 6423,
      "##롯": 6424,
      "##룹": 6425,
      "##잦": 6426,
      "##켄": 6427,
      "##밍": 6428,
      "##릴": 6429,
      "##겸": 6430,
      "##셀": 6431,
      "##쎠": 6432,
      "##낳": 6433,
      "##🐖": 6434,
      "##켰": 6435,
      "##뉸": 6436,
      "##벗": 6437,
      "##엨": 6438,
      "##숨": 6439,
      "##밖": 6440,
      "##갠": 6441,
      "##닙": 6442,
      "##멜": 6443,
      "##🖕": 6444,
      "##갇": 6445,
      "##칰": 6446,
      "##읔": 6447,
      "##팍": 6448,
      "##ó": 6449,
      "##벙": 6450,
      "##🔪": 6451,
      "##씬": 6452,
      "##맨": 6453,
      "##💓": 6454,
      "##븐": 6455,
      "##🤦": 6456,
      "##탠": 6457,
      "##🌴": 6458,
      "##웡": 6459,
      "##🤬": 6460,
      "##😐": 6461,
      "##핸": 6462,
      "##봣": 6463,
      "##롬": 6464,
      "##ᄃ": 6465,
      "##ᄀ": 6466,
      "##싲": 6467,
      "##ю": 6468,
      "##す": 6469,
      "##벅": 6470,
      "##깥": 6471,
      "##묵": 6472,
      "##🥐": 6473,
      "##싢": 6474,
      "##👑": 6475,
      "##ᴬ": 6476,
      "##💞": 6477,
      "##덴": 6478,
      "##💗": 6479,
      "##죈": 6480,
      "##떫": 6481,
      "##싼": 6482,
      "##팬": 6483,
      "##캔": 6484,
      "##딴": 6485,
      "##컵": 6486,
      "##😙": 6487,
      "##😚": 6488,
      "##겼": 6489,
      "##쎅": 6490,
      "##꺄": 6491,
      "##햤": 6492,
      "##꼴": 6493,
      "##뿟": 6494,
      "##즤": 6495,
      "##갖": 6496,
      "##🐯": 6497,
      "##잃": 6498,
      "##렷": 6499,
      "##땡": 6500,
      "##я": 6501,
      "##짱": 6502,
      "##맄": 6503,
      "##묻": 6504,
      "##윽": 6505,
      "##뎡": 6506,
      "##힛": 6507,
      "##펩": 6508,
      "##썽": 6509,
      "##🍇": 6510,
      "##🍑": 6511,
      "##🍉": 6512,
      "##웠": 6513,
      "##밎": 6514,
      "##쌀": 6515,
      "##뽑": 6516,
      "##샡": 6517,
      "##흣": 6518,
      "##혹": 6519,
      "##붸": 6520,
      "##쇄": 6521,
      "##멋": 6522,
      "##훙": 6523,
      "##▼": 6524,
      "##쭈": 6525,
      "##뚜": 6526,
      "##봏": 6527,
      "##낀": 6528,
      "##녓": 6529,
      "##ᆡ": 6530,
      "##빚": 6531,
      "##갚": 6532,
      "##혐": 6533,
      "##늄": 6534,
      "##📌": 6535,
      "##📍": 6536,
      "##꽃": 6537,
      "##댄": 6538,
      "##👥": 6539,
      "##👤": 6540,
      "##🌟": 6541,
      "##ᄂ": 6542,
      "##견": 6543,
      "##짝": 6544,
      "##け": 6545,
      "##앉": 6546,
      "##슐": 6547,
      "##쳤": 6548,
      "##쑤": 6549,
      "##뤠": 6550,
      "##쐐": 6551,
      "##찢": 6552,
      "##슝": 6553,
      "##뤄": 6554,
      "##짠": 6555,
      "##💥": 6556,
      "##🔫": 6557,
      "##뚠": 6558,
      "##💛": 6559,
      "##꼇": 6560,
      "##숴": 6561,
      "##얹": 6562,
      "##쨌": 6563,
      "##깍": 6564,
      "##댈": 6565,
      "##넨": 6566,
      "##틈": 6567,
      "##딜": 6568,
      "##럿": 6569,
      "##앤": 6570,
      "##엠": 6571,
      "##옴": 6572,
      "##껍": 6573,
      "##꾹": 6574,
      "##렉": 6575,
      "##뿌": 6576,
      "##덩": 6577,
      "##샊": 6578,
      "##🌿": 6579,
      "##🎁": 6580,
      "##ッ": 6581,
      "##🤮": 6582,
      "##イ": 6583,
      "##멩": 6584,
      "##왔": 6585,
      "##읗": 6586,
      "##떻": 6587,
      "##д": 6588,
      "##셰": 6589,
      "##🍆": 6590,
      "##🐤": 6591,
      "##홈": 6592,
      "##첼": 6593,
      "##뭥": 6594,
      "##녔": 6595,
      "##を": 6596,
      "##쳣": 6597,
      "##슷": 6598,
      "##둡": 6599,
      "##롷": 6600,
      "##쫓": 6601,
      "##퓸": 6602,
      "##맍": 6603,
      "##チ": 6604,
      "##즐": 6605,
      "##😋": 6606,
      "##ч": 6607,
      "##く": 6608,
      "##わ": 6609,
      "##눼": 6610,
      "##ケ": 6611,
      "##ノ": 6612,
      "##フ": 6613,
      "##シ": 6614,
      "##ム": 6615,
      "##핟": 6616,
      "##껀": 6617,
      "##랍": 6618,
      "##😃": 6619,
      "##늑": 6620,
      "##븍": 6621,
      "##펑": 6622,
      "##컹": 6623,
      "##믿": 6624,
      "##팽": 6625,
      "##펀": 6626,
      "##챱": 6627,
      "##씁": 6628,
      "##엽": 6629,
      "##줭": 6630,
      "##놔": 6631,
      "##🙉": 6632,
      "##🙊": 6633,
      "##🙈": 6634,
      "##ᆫ": 6635,
      "##셨": 6636,
      "##ا": 6637,
      "##궐": 6638,
      "##꿇": 6639,
      "##땜": 6640,
      "##낙": 6641,
      "##몃": 6642,
      "##😗": 6643,
      "##챙": 6644,
      "##🙏": 6645,
      "##😌": 6646,
      "##옆": 6647,
      "##멈": 6648,
      "##😖": 6649,
      "##😧": 6650,
      "##둠": 6651,
      "##룸": 6652,
      "##꿀": 6653,
      "##첩": 6654,
      "##툴": 6655,
      "##햌": 6656,
      "##썩": 6657,
      "##륙": 6658,
      "##밸": 6659,
      "##꽝": 6660,
      "##👉": 6661,
      "##🚫": 6662,
      "##늗": 6663,
      "##텍": 6664,
      "##껏": 6665,
      "##밝": 6666,
      "##졋": 6667,
      "##👋": 6668,
      "##ā": 6669,
      "##릇": 6670,
      "##퉷": 6671,
      "##똑": 6672,
      "##😬": 6673,
      "##コ": 6674,
      "##앵": 6675,
      "##횐": 6676,
      "##풉": 6677,
      "##흙": 6678,
      "##で": 6679,
      "##괄": 6680,
      "##갯": 6681,
      "##の": 6682,
      "##쥘": 6683,
      "##펌": 6684,
      "##훗": 6685,
      "##붓": 6686,
      "##빌": 6687,
      "##🥄": 6688,
      "##뱔": 6689,
      "##죵": 6690,
      "##🎶": 6691,
      "##쮸": 6692,
      "##숯": 6693,
      "##떱": 6694,
      "##🐱": 6695,
      "##짭": 6696,
      "##늦": 6697,
      "##👎": 6698,
      "##튿": 6699,
      "##돔": 6700,
      "##섀": 6701,
      "##꿘": 6702,
      "##쒸": 6703,
      "##뢀": 6704,
      "##햄": 6705,
      "##캉": 6706,
      "##릐": 6707,
      "##꾀": 6708,
      "##읻": 6709,
      "##펄": 6710,
      "##걷": 6711,
      "##쿨": 6712,
      "##뀨": 6713,
      "##엑": 6714,
      "##콕": 6715,
      "##찝": 6716,
      "##Ⅲ": 6717,
      "##잎": 6718,
      "##넒": 6719,
      "##핵": 6720,
      "##ㅖ": 6721,
      "##씌": 6722,
      "##넥": 6723,
      "##쌓": 6724,
      "##🔞": 6725,
      "##🙅": 6726,
      "##낟": 6727,
      "##🍊": 6728,
      "##잊": 6729,
      "##∼": 6730,
      "##룰": 6731,
      "##뜰": 6732,
      "##듸": 6733,
      "##돜": 6734,
      "##¹": 6735,
      "##픈": 6736,
      "##놨": 6737,
      "##맸": 6738,
      "##푼": 6739,
      "##걱": 6740,
      "##툥": 6741,
      "##뗏": 6742,
      "##욜": 6743,
      "##솨": 6744,
      "##냔": 6745,
      "##떈": 6746,
      "##볍": 6747,
      "##꼈": 6748,
      "##곺": 6749,
      "##삐": 6750,
      "##💐": 6751,
      "##섺": 6752,
      "##뽐": 6753,
      "##헹": 6754,
      "##롼": 6755,
      "##돗": 6756,
      "##닛": 6757,
      "##딕": 6758,
      "##좦": 6759,
      "##톰": 6760,
      "##🍓": 6761,
      "##🍰": 6762,
      "##♥": 6763,
      "##✌": 6764,
      "##앱": 6765,
      "##햅": 6766,
      "##뺘": 6767,
      "##꼰": 6768,
      "##겤": 6769,
      "##탭": 6770,
      "##🌼": 6771,
      "##쏴": 6772,
      "##💸": 6773,
      "##렿": 6774,
      "##꼽": 6775,
      "##🥺": 6776,
      "##グ": 6777,
      "##🤭": 6778,
      "##펐": 6779,
      "##쁨": 6780,
      "##퐁": 6781,
      "##괜": 6782,
      "##닝": 6783,
      "##쁠": 6784,
      "##촵": 6785,
      "##낚": 6786,
      "##죳": 6787,
      "##숮": 6788,
      "##쌌": 6789,
      "##웤": 6790,
      "##🐾": 6791,
      "##췌": 6792,
      "##궤": 6793,
      "##👆": 6794,
      "##😝": 6795,
      "##🤤": 6796,
      "##슺": 6797,
      "##ト": 6798,
      "##ウ": 6799,
      "##찐": 6800,
      "##늨": 6801,
      "##🕯": 6802,
      "##놋": 6803,
      "##짯": 6804,
      "##뭏": 6805,
      "##🇺": 6806,
      "##즇": 6807,
      "##늫": 6808,
      "##맏": 6809,
      "##끊": 6810,
      "##벵": 6811,
      "##̣": 6812,
      "##̩": 6813,
      "##긎": 6814,
      "##🐮": 6815,
      "##훅": 6816,
      "##è": 6817,
      "##α": 6818,
      "##λ": 6819,
      "##γ": 6820,
      "##π": 6821,
      "##뽕": 6822,
      "##쫄": 6823,
      "##춰": 6824,
      "##맴": 6825,
      "##퀸": 6826,
      "##씩": 6827,
      "##ᄒ": 6828,
      "##엿": 6829,
      "##햏": 6830,
      "##솟": 6831,
      "##걀": 6832,
      "##햔": 6833,
      "##얻": 6834,
      "##읎": 6835,
      "##썸": 6836,
      "##👇": 6837,
      "##첫": 6838,
      "##삥": 6839,
      "##😲": 6840,
      "##メ": 6841,
      "##キ": 6842,
      "##뭘": 6843,
      "##눟": 6844,
      "##💦": 6845,
      "##よ": 6846,
      "##믓": 6847,
      "##븅": 6848,
      "##쉼": 6849,
      "##💟": 6850,
      "##랭": 6851,
      "##굽": 6852,
      "##읽": 6853,
      "##엊": 6854,
      "##셉": 6855,
      "##😪": 6856,
      "##😥": 6857,
      "##😰": 6858,
      "##쨘": 6859,
      "##💣": 6860,
      "##웬": 6861,
      "##쥔": 6862,
      "##❌": 6863,
      "##❎": 6864,
      "##밨": 6865,
      "##밑": 6866,
      "##롸": 6867,
      "##껑": 6868,
      "##횬": 6869,
      "##샠": 6870,
      "##｜": 6871,
      "##🗡": 6872,
      "##😮": 6873,
      "##슛": 6874,
      "##팥": 6875,
      "##👊": 6876,
      "##섬": 6877,
      "##넬": 6878,
      "##솝": 6879,
      "##👦": 6880,
      "##빱": 6881,
      "##샨": 6882,
      "##낮": 6883,
      "##눞": 6884,
      "##폄": 6885,
      "##🤧": 6886,
      "##😷": 6887,
      "##タ": 6888,
      "##얄": 6889,
      "##튀": 6890,
      "##🙇": 6891,
      "##듄": 6892,
      "##뮨": 6893,
      "##훤": 6894,
      "##짗": 6895,
      "##펜": 6896,
      "##÷": 6897,
      "##뱀": 6898,
      "##쾡": 6899,
      "##👶": 6900,
      "##넋": 6901,
      "##푹": 6902,
      "##퉤": 6903,
      "##쟌": 6904,
      "##😵": 6905,
      "##뚯": 6906,
      "##🇸": 6907,
      "##쳔": 6908,
      "##곽": 6909,
      "##팟": 6910,
      "##뚤": 6911,
      "##늙": 6912,
      "##긁": 6913,
      "##귿": 6914,
      "##큼": 6915,
      "##뻬": 6916,
      "##툼": 6917,
      "##뭍": 6918,
      "##낰": 6919,
      "##밌": 6920,
      "##🤓": 6921,
      "##맙": 6922,
      "##뚱": 6923,
      "##솜": 6924,
      "##쵹": 6925,
      "##촹": 6926,
      "##돨": 6927,
      "##잋": 6928,
      "##쩔": 6929,
      "##뛔": 6930,
      "##샋": 6931,
      "##넙": 6932,
      "##죻": 6933,
      "##멕": 6934,
      "##잿": 6935,
      "##쑵": 6936,
      "##됨": 6937,
      "##랖": 6938,
      "##レ": 6939,
      "##ブ": 6940,
      "##섰": 6941,
      "##옘": 6942,
      "##쌩": 6943,
      "##뭔": 6944,
      "##옇": 6945,
      "##콤": 6946,
      "##돤": 6947,
      "##톼": 6948,
      "##🤟": 6949,
      "##챡": 6950,
      "##얏": 6951,
      "##ㄼ": 6952,
      "##봊": 6953,
      "##븝": 6954,
      "##핫": 6955,
      "##떳": 6956,
      "##촤": 6957,
      "##켔": 6958,
      "##웩": 6959,
      "##퉁": 6960,
      "##굵": 6961,
      "##퐝": 6962,
      "##쓣": 6963,
      "##촞": 6964,
      "##꽂": 6965,
      "##랗": 6966,
      "##쫭": 6967,
      "##🍋": 6968,
      "##웜": 6969,
      "##칩": 6970,
      "##겐": 6971,
      "##햘": 6972,
      "##🥶": 6973,
      "##쪕": 6974,
      "##밤": 6975,
      "##밪": 6976,
      "##댕": 6977,
      "##솓": 6978,
      "##땐": 6979,
      "##꿰": 6980,
      "##겄": 6981,
      "##㈐": 6982,
      "##긔": 6983,
      "##켠": 6984,
      "##겧": 6985,
      "##셐": 6986,
      "##С": 6987,
      "##К": 6988,
      "##à": 6989,
      "##껭": 6990,
      "##🥕": 6991,
      "##툰": 6992,
      "##켱": 6993,
      "##ⓐ": 6994,
      "##ⓒ": 6995,
      "##ⓓ": 6996,
      "##굼": 6997,
      "##꿈": 6998,
      "##숫": 6999,
      "##🤔": 7000,
      "##챤": 7001,
      "##듣": 7002,
      "##뜬": 7003,
      "##깻": 7004,
      "##🍫": 7005,
      "##윰": 7006,
      "##숄": 7007,
      "##갭": 7008,
      "##맂": 7009,
      "##ソ": 7010,
      "##픔": 7011,
      "##핍": 7012,
      "##샬": 7013,
      "##깟": 7014,
      "##뢴": 7015,
      "##엡": 7016,
      "##뒈": 7017,
      "##룀": 7018,
      "##퀀": 7019,
      "##몇": 7020,
      "##🔨": 7021,
      "##탓": 7022,
      "##몌": 7023,
      "##콰": 7024,
      "##🎂": 7025,
      "##킄": 7026,
      "##삶": 7027,
      "##갉": 7028,
      "##잣": 7029,
      "##🍖": 7030,
      "##볻": 7031,
      "##쫑": 7032,
      "##옌": 7033,
      "##뎐": 7034,
      "##뼝": 7035,
      "##흰": 7036,
      "##썬": 7037,
      "##졔": 7038,
      "##샇": 7039,
      "##♡": 7040,
      "##☆": 7041,
      "##퇄": 7042,
      "##😶": 7043,
      "##씀": 7044,
      "##랩": 7045,
      "##꼐": 7046,
      "##붐": 7047,
      "##흫": 7048,
      "##뺴": 7049,
      "##짢": 7050,
      "##렛": 7051,
      "##셜": 7052,
      "##횟": 7053,
      "##👩": 7054,
      "##챘": 7055,
      "##М": 7056,
      "##И": 7057,
      "##홥": 7058,
      "##☺": 7059,
      "##챗": 7060,
      "##붑": 7061,
      "##🍚": 7062,
      "##젓": 7063,
      "##쏙": 7064,
      "##쥭": 7065,
      "##밴": 7066,
      "##띵": 7067,
      "##뉜": 7068,
      "##욬": 7069,
      "##쌈": 7070,
      "##븽": 7071,
      "##🐥": 7072,
      "##빰": 7073,
      "##Р": 7074,
      "##줒": 7075,
      "##슼": 7076,
      "##돝": 7077,
      "##샙": 7078,
      "##😀": 7079,
      "##녈": 7080,
      "##🍪": 7081,
      "##믈": 7082,
      "##닢": 7083,
      "##🎊": 7084,
      "##🥳": 7085,
      "##뽤": 7086,
      "##읖": 7087,
      "##띨": 7088,
      "##ロ": 7089,
      "##ポ": 7090,
      "##🎃": 7091,
      "##🎈": 7092,
      "##👻": 7093,
      "##껌": 7094,
      "##탯": 7095,
      "##듵": 7096,
      "##🚨": 7097,
      "##탆": 7098,
      "##밈": 7099,
      "##줏": 7100,
      "##챈": 7101,
      "##밭": 7102,
      "##븨": 7103,
      "##촟": 7104,
      "##셧": 7105,
      "##😻": 7106,
      "##셈": 7107,
      "##◡": 7108,
      "##●": 7109,
      "##켯": 7110,
      "##🎆": 7111,
      "##①": 7112,
      "##②": 7113,
      "##왠": 7114,
      "##즛": 7115,
      "##쯧": 7116,
      "##み": 7117,
      "##씻": 7118,
      "##🎤": 7119,
      "##옿": 7120,
      "##💘": 7121,
      "##젊": 7122,
      "##펫": 7123,
      "##텟": 7124,
      "##핼": 7125,
      "##😢": 7126,
      "##볏": 7127,
      "##ㅄ": 7128,
      "##슉": 7129,
      "##쇅": 7130,
      "##쥴": 7131,
      "##줗": 7132,
      "##딲": 7133,
      "##쌔": 7134,
      "##そ": 7135,
      "##묶": 7136,
      "##삯": 7137,
      "##🙄": 7138,
      "##츙": 7139,
      "##봘": 7140,
      "##괨": 7141,
      "##쑥": 7142,
      "##틑": 7143,
      "##덟": 7144,
      "##짧": 7145,
      "##밣": 7146,
      "##휠": 7147,
      "##땍": 7148,
      "##곧": 7149,
      "##촨": 7150,
      "##끌": 7151,
      "##テ": 7152,
      "##갛": 7153,
      "##🚴": 7154,
      "##닦": 7155,
      "##캄": 7156,
      "##굉": 7157,
      "##👨": 7158,
      "##윷": 7159,
      "##ç": 7160,
      "##웁": 7161,
      "##냅": 7162,
      "##뒀": 7163,
      "##칫": 7164,
      "##덱": 7165,
      "##깉": 7166,
      "##읁": 7167,
      "##듭": 7168,
      "##ジ": 7169,
      "##깅": 7170,
      "##🍴": 7171,
      "##몫": 7172,
      "##젣": 7173,
      "##꽌": 7174,
      "##뮴": 7175,
      "##🏃": 7176,
      "##헿": 7177,
      "##벳": 7178,
      "##얕": 7179,
      "##똬": 7180,
      "##땃": 7181,
      "##곗": 7182,
      "##붇": 7183,
      "##췬": 7184,
      "##😇": 7185,
      "##쑨": 7186,
      "##굶": 7187,
      "##셴": 7188,
      "##낍": 7189,
      "##놰": 7190,
      "##😫": 7191,
      "##몆": 7192,
      "##삽": 7193,
      "##놐": 7194,
      "##띤": 7195,
      "##떤": 7196,
      "##젱": 7197,
      "##꺽": 7198,
      "##헛": 7199,
      "##🎀": 7200,
      "##뾱": 7201,
      "##냠": 7202,
      "##꺠": 7203,
      "##톈": 7204,
      "##⛔": 7205,
      "##윅": 7206,
      "##씹": 7207,
      "##녘": 7208,
      "##긷": 7209,
      "##깽": 7210,
      "##쒜": 7211,
      "##숍": 7212,
      "##귝": 7213,
      "##뎀": 7214,
      "##🙋": 7215,
      "##훔": 7216,
      "##겍": 7217,
      "##🖐": 7218,
      "##🌞": 7219,
      "##쉣": 7220,
      "##흡": 7221,
      "##닫": 7222,
      "##밉": 7223,
      "##뽁": 7224,
      "##킼": 7225,
      "##캘": 7226,
      "##📸": 7227,
      "##릏": 7228,
      "##늧": 7229,
      "##㈜": 7230,
      "##빔": 7231,
      "##욛": 7232,
      "##쳥": 7233,
      "##뜽": 7234,
      "##カ": 7235,
      "##꿍": 7236,
      "##괘": 7237,
      "##텋": 7238,
      "##˘": 7239,
      "##́": 7240,
      "##̀": 7241,
      "##쏭": 7242,
      "##펼": 7243,
      "##끙": 7244,
      "##🌳": 7245,
      "##🍞": 7246,
      "##ミ": 7247,
      "##옐": 7248,
      "##뿔": 7249,
      "##잨": 7250,
      "##팝": 7251,
      "##혓": 7252,
      "##☔": 7253,
      "##훌": 7254,
      "##멎": 7255,
      "##겻": 7256,
      "##햣": 7257,
      "##쿼": 7258,
      "##챵": 7259,
      "##썼": 7260,
      "##잌": 7261,
      "##걔": 7262,
      "##죡": 7263,
      "##★": 7264,
      "##닺": 7265,
      "##뺨": 7266,
      "##😅": 7267,
      "##짚": 7268,
      "##쿸": 7269,
      "##풋": 7270,
      "##잭": 7271,
      "##찧": 7272,
      "##믁": 7273,
      "##셕": 7274,
      "##멧": 7275,
      "##웹": 7276,
      "##が": 7277,
      "##겅": 7278,
      "##맷": 7279,
      "##샣": 7280,
      "##짊": 7281,
      "##촣": 7282,
      "##´": 7283,
      "##댁": 7284,
      "##앨": 7285,
      "##샄": 7286,
      "##죌": 7287,
      "##밟": 7288,
      "##홉": 7289,
      "##ヒ": 7290,
      "##🍳": 7291,
      "##🧀": 7292,
      "##잛": 7293,
      "##쓽": 7294,
      "##괭": 7295,
      "##👺": 7296,
      "##챌": 7297,
      "##А": 7298,
      "##В": 7299,
      "##뻑": 7300,
      "##빳": 7301,
      "##깠": 7302,
      "##텁": 7303,
      "##쓱": 7304,
      "##핱": 7305,
      "##쭤": 7306,
      "##귯": 7307,
      "##겜": 7308,
      "##폼": 7309,
      "##슌": 7310,
      "##め": 7311,
      "##×": 7312,
      "##캭": 7313,
      "##♩": 7314,
      "##캣": 7315,
      "##롴": 7316,
      "##엎": 7317,
      "##딫": 7318,
      "##죤": 7319,
      "##😔": 7320,
      "##뽝": 7321,
      "##퉜": 7322,
      "##쉭": 7323,
      "##퀄": 7324,
      "##묭": 7325,
      "##쌤": 7326,
      "##🐟": 7327,
      "##🔵": 7328,
      "##왤": 7329,
      "##맺": 7330,
      "##졍": 7331,
      "##랠": 7332,
      "##컥": 7333,
      "##갘": 7334,
      "##헙": 7335,
      "##톨": 7336,
      "##え": 7337,
      "##뵤": 7338,
      "##쭐": 7339,
      "##퀵": 7340,
      "##딥": 7341,
      "##🍗": 7342,
      "##🍕": 7343,
      "##뚫": 7344,
      "##🔴": 7345,
      "##뷸": 7346,
      "##핮": 7347,
      "##틍": 7348,
      "##땠": 7349,
      "##닮": 7350,
      "##뿜": 7351,
      "##츼": 7352,
      "##찔": 7353,
      "##뎨": 7354,
      "##헥": 7355,
      "##폿": 7356,
      "##턱": 7357,
      "##앋": 7358,
      "##흩": 7359,
      "##덯": 7360,
      "##럐": 7361,
      "##볘": 7362,
      "##릅": 7363,
      "##좇": 7364,
      "##쫒": 7365,
      "##👀": 7366,
      "##σ": 7367,
      "##썰": 7368,
      "##¤": 7369,
      "##🍀": 7370,
      "##컷": 7371,
      "##웟": 7372,
      "##칞": 7373,
      "##죧": 7374,
      "##쿳": 7375,
      "##❗": 7376,
      "##킥": 7377,
      "##헨": 7378,
      "##붜": 7379,
      "##맣": 7380,
      "##퍽": 7381,
      "##퇘": 7382,
      "##🤯": 7383,
      "##Ⅰ": 7384,
      "##닯": 7385,
      "##랫": 7386,
      "##찟": 7387,
      "##잴": 7388,
      "##묽": 7389,
      "##뱡": 7390,
      "##맇": 7391,
      "##휭": 7392,
      "##됬": 7393,
      "##쵝": 7394,
      "##🐙": 7395,
      "##쾅": 7396,
      "##🐩": 7397,
      "##🐂": 7398,
      "##🐈": 7399,
      "##쾨": 7400,
      "##쟙": 7401,
      "##겆": 7402,
      "##뺏": 7403,
      "##밞": 7404,
      "##듦": 7405,
      "##앎": 7406,
      "##묜": 7407,
      "##몀": 7408,
      "##🍲": 7409,
      "##⒜": 7410,
      "##▽": 7411,
      "##끕": 7412,
      "##줫": 7413,
      "##옮": 7414,
      "##쨍": 7415,
      "##렙": 7416,
      "##떽": 7417,
      "##퍅": 7418,
      "##듁": 7419,
      "##먕": 7420,
      "##꾜": 7421,
      "##텃": 7422,
      "##맵": 7423,
      "##젯": 7424,
      "##읹": 7425,
      "##땨": 7426,
      "##💎": 7427,
      "##👈": 7428,
      "##🤢": 7429,
      "##섣": 7430,
      "##똔": 7431,
      "##핥": 7432,
      "##췃": 7433,
      "##샐": 7434,
      "##ㅒ": 7435,
      "##쏜": 7436,
      "##랒": 7437,
      "##㉤": 7438,
      "##㉢": 7439,
      "##㉣": 7440,
      "##ᅵ": 7441,
      "##귤": 7442,
      "##🏾": 7443,
      "##뗘": 7444,
      "##옅": 7445,
      "##✨": 7446,
      "##＝": 7447,
      "##볕": 7448,
      "##뱃": 7449,
      "##😩": 7450,
      "##☎": 7451,
      "##앝": 7452,
      "##퉈": 7453,
      "##촛": 7454,
      "##냘": 7455,
      "##뺄": 7456,
      "##냬": 7457,
      "##굣": 7458,
      "##랔": 7459,
      "##뱍": 7460,
      "##헵": 7461,
      "##쟨": 7462,
      "##겋": 7463,
      "##🇹": 7464,
      "##쇆": 7465,
      "##ㅤ": 7466,
      "##짒": 7467,
      "##왘": 7468,
      "##멓": 7469,
      "##삘": 7470,
      "##튭": 7471,
      "##ェ": 7472,
      "##걩": 7473,
      "##벰": 7474,
      "##펨": 7475,
      "##믐": 7476,
      "##ぬ": 7477,
      "##좁": 7478,
      "##🎄": 7479,
      "##🕊": 7480,
      "##긧": 7481,
      "##맟": 7482,
      "##삔": 7483,
      "##곈": 7484,
      "##컾": 7485,
      "##꺾": 7486,
      "##🐻": 7487,
      "##섲": 7488,
      "##짹": 7489,
      "##듲": 7490,
      "##곶": 7491,
      "##낱": 7492,
      "##쬐": 7493,
      "##읃": 7494,
      "##뿉": 7495,
      "##쬬": 7496,
      "##뻘": 7497,
      "##닳": 7498,
      "##쒝": 7499,
      "##캠": 7500,
      "##🎵": 7501,
      "##춥": 7502,
      "##🍒": 7503,
      "##벋": 7504,
      "##좡": 7505,
      "##몹": 7506,
      "##쫩": 7507,
      "##🚀": 7508,
      "##촘": 7509,
      "##컸": 7510,
      "##🤍": 7511,
      "##숏": 7512,
      "##쌉": 7513,
      "##댘": 7514,
      "##₂": 7515,
      "##캍": 7516,
      "##❤": 7517,
      "##봨": 7518,
      "##썻": 7519,
      "##켸": 7520,
      "##왁": 7521,
      "##쨉": 7522,
      "##핌": 7523,
      "##켤": 7524,
      "##겈": 7525,
      "##왼": 7526,
      "##펙": 7527,
      "##셱": 7528,
      "##숀": 7529,
      "##겉": 7530,
      "##깤": 7531,
      "##👅": 7532,
      "##읊": 7533,
      "##쑴": 7534,
      "##첬": 7535,
      "##횽": 7536,
      "##깆": 7537,
      "##똭": 7538,
      "##쉿": 7539,
      "##잍": 7540,
      "##숸": 7541,
      "##됀": 7542,
      "##듷": 7543,
      "##̶": 7544,
      "##젭": 7545,
      "##✔": 7546,
      "##졷": 7547,
      "##옛": 7548,
      "##🤑": 7549,
      "##🎬": 7550,
      "##쓔": 7551,
      "##룻": 7552,
      "##큽": 7553,
      "##⚠": 7554,
      "##땝": 7555,
      "##꽤": 7556,
      "##퀼": 7557,
      "##섦": 7558,
      "##궹": 7559,
      "##▲": 7560,
      "##뼉": 7561,
      "##떵": 7562,
      "##졀": 7563,
      "##낵": 7564,
      "##쉒": 7565,
      "##쪄": 7566,
      "##힣": 7567,
      "##±": 7568,
      "##찼": 7569,
      "##잤": 7570,
      "##홰": 7571,
      "##칮": 7572,
      "##뮌": 7573,
      "##캥": 7574,
      "##씸": 7575,
      "##👧": 7576,
      "##뻤": 7577,
      "##켕": 7578,
      "##잚": 7579,
      "##헴": 7580,
      "##♣": 7581,
      "##궃": 7582,
      "##욷": 7583,
      "##ⅰ": 7584,
      "##🌋": 7585,
      "##뎁": 7586,
      "##촐": 7587,
      "##튠": 7588,
      "##빻": 7589,
      "##덪": 7590,
      "##넫": 7591,
      "##━": 7592,
      "##챔": 7593,
      "##😴": 7594,
      "##숲": 7595,
      "##셓": 7596,
      "##뛰": 7597,
      "##겊": 7598,
      "##쌰": 7599,
      "##튬": 7600,
      "##씠": 7601,
      "##헷": 7602,
      "##듕": 7603,
      "##홧": 7604,
      "##쓉": 7605,
      "##샏": 7606,
      "##밷": 7607,
      "##뱁": 7608,
      "##🤘": 7609,
      "##🐽": 7610,
      "##숟": 7611,
      "##€": 7612,
      "##£": 7613,
      "##■": 7614,
      "##□": 7615,
      "##°": 7616,
      "##찹": 7617,
      "##좊": 7618,
      "##놉": 7619,
      "##씐": 7620,
      "##돕": 7621,
      "##쥰": 7622,
      "##앓": 7623,
      "##뎃": 7624,
      "##쩐": 7625,
      "##훑": 7626,
      "##뗴": 7627,
      "##뷔": 7628,
      "##윱": 7629,
      "##뿨": 7630,
      "##뿍": 7631,
      "##휼": 7632,
      "##🐍": 7633,
      "##탤": 7634,
      "##🍅": 7635,
      "##욍": 7636,
      "##앳": 7637,
      "##쌘": 7638,
      "##놧": 7639,
      "##🦀": 7640,
      "##밬": 7641,
      "##긕": 7642,
      "##닽": 7643,
      "##늕": 7644,
      "##륄": 7645,
      "##❓": 7646,
      "##섞": 7647,
      "##좔": 7648,
      "##솤": 7649,
      "##덮": 7650,
      "##낏": 7651,
      "##🐰": 7652,
      "##귓": 7653,
      "##갬": 7654,
      "##̥": 7655,
      "##싴": 7656,
      "##훨": 7657,
      "##깈": 7658,
      "##읺": 7659,
      "##팃": 7660,
      "##뺀": 7661,
      "##붉": 7662,
      "##푀": 7663,
      "##뺃": 7664,
      "##뽈": 7665,
      "##β": 7666,
      "##펭": 7667,
      "##얺": 7668,
      "##슁": 7669,
      "##낄": 7670,
      "##렜": 7671,
      "##🔜": 7672,
      "##홑": 7673,
      "##얽": 7674,
      "##걑": 7675,
      "##팰": 7676,
      "##븜": 7677,
      "##롹": 7678,
      "##🗣": 7679,
      "##섁": 7680,
      "##깁": 7681,
      "##퍈": 7682,
      "##욹": 7683,
      "##뜀": 7684,
      "##얍": 7685,
      "##틋": 7686,
      "##🌜": 7687,
      "##뫃": 7688,
      "##굔": 7689,
      "##̈": 7690,
      "##㉮": 7691,
      "##욀": 7692,
      "##핬": 7693,
      "##옭": 7694,
      "##팸": 7695,
      "##뵹": 7696,
      "##↓": 7697,
      "##캑": 7698,
      "##귈": 7699,
      "##힉": 7700,
      "##🥖": 7701,
      "##읜": 7702,
      "##즨": 7703,
      "##🏠": 7704,
      "##젹": 7705,
      "##첵": 7706,
      "##깬": 7707,
      "##컄": 7708,
      "##☢": 7709,
      "##멤": 7710,
      "##😒": 7711,
      "##맡": 7712,
      "##곀": 7713,
      "##뽜": 7714,
      "##벧": 7715,
      "##♤": 7716,
      "##♧": 7717,
      "##짛": 7718,
      "##ⅱ": 7719,
      "##깼": 7720,
      "##쿰": 7721,
      "##짼": 7722,
      "##춧": 7723,
      "##캅": 7724,
      "##㈏": 7725,
      "##큭": 7726,
      "##⚡": 7727,
      "##멱": 7728,
      "##뺠": 7729,
      "##쎼": 7730,
      "##쨋": 7731,
      "##곻": 7732,
      "##🍯": 7733,
      "##👼": 7734,
      "##깄": 7735,
      "##칀": 7736,
      "##📖": 7737,
      "##뵙": 7738,
      "##텄": 7739,
      "##뚝": 7740,
      "##뗄": 7741,
      "##↘": 7742,
      "##꿜": 7743,
      "##셤": 7744,
      "##뷱": 7745,
      "##넵": 7746,
      "##🚩": 7747,
      "##쉈": 7748,
      "##④": 7749,
      "##⑤": 7750,
      "##❄": 7751,
      "##❣": 7752,
      "##욮": 7753,
      "##괌": 7754,
      "##섴": 7755,
      "##댐": 7756,
      "##Ⅳ": 7757,
      "##잫": 7758,
      "##ｍ": 7759,
      "##젔": 7760,
      "##팎": 7761,
      "##뎄": 7762,
      "##♨": 7763,
      "##◆": 7764,
      "##탔": 7765,
      "##갼": 7766,
      "##먈": 7767,
      "##윾": 7768,
      "##뫄": 7769,
      "##퐈": 7770,
      "##😑": 7771,
      "##깎": 7772,
      "##＞": 7773,
      "##＜": 7774,
      "##뱉": 7775,
      "##킵": 7776,
      "##쇤": 7777,
      "##깰": 7778,
      "##딤": 7779,
      "##뿡": 7780,
      "##곁": 7781,
      "##뷩": 7782,
      "##🔖": 7783,
      "##쫘": 7784,
      "##윌": 7785,
      "##뻣": 7786,
      "##껜": 7787,
      "##덫": 7788,
      "##→": 7789,
      "##뮐": 7790,
      "##짴": 7791,
      "##😓": 7792,
      "##빽": 7793,
      "##얜": 7794,
      "##뗐": 7795,
      "##텼": 7796,
      "##뷴": 7797,
      "##💢": 7798,
      "##👣": 7799,
      "##궄": 7800,
      "##췄": 7801,
      "##쯪": 7802,
      "##푯": 7803,
      "##뉨": 7804,
      "##됌": 7805,
      "##큘": 7806,
      "##뎠": 7807,
      "##쀼": 7808,
      "##띡": 7809,
      "##썪": 7810,
      "##쥥": 7811,
      "##📢": 7812,
      "##딹": 7813,
      "##꿨": 7814,
      "##쒀": 7815,
      "##괸": 7816,
      "##쎀": 7817,
      "##🔹": 7818,
      "##🔸": 7819,
      "##▷": 7820,
      "##쌋": 7821,
      "##🍾": 7822,
      "##뿝": 7823,
      "##싑": 7824,
      "##싰": 7825,
      "##쉥": 7826,
      "##쎔": 7827,
      "##◀": 7828,
      "##툭": 7829,
      "##쨈": 7830,
      "##횃": 7831,
      "##ｔ": 7832,
      "##훕": 7833,
      "##│": 7834,
      "##쪘": 7835,
      "##좨": 7836,
      "##팠": 7837,
      "##쳉": 7838,
      "##빩": 7839,
      "##≫": 7840,
      "##팻": 7841,
      "##🌝": 7842,
      "##죗": 7843,
      "##◇": 7844,
      "##퇫": 7845,
      "##긿": 7846,
      "##씽": 7847,
      "##🐅": 7848,
      "##⑨": 7849,
      "##⑩": 7850,
      "##⑪": 7851,
      "##↔": 7852,
      "##쩨": 7853,
      "##즣": 7854,
      "##눗": 7855,
      "##좉": 7856,
      "##졎": 7857,
      "##👯": 7858,
      "##🧚": 7859,
      "##⋅": 7860,
      "##쫙": 7861,
      "##핡": 7862,
      "##띱": 7863,
      "##좥": 7864,
      "##넜": 7865,
      "##읕": 7866,
      "##̤": 7867,
      "##̫": 7868,
      "##쳬": 7869,
      "##귐": 7870,
      "##톄": 7871,
      "##쭙": 7872,
      "##숱": 7873,
      "##옙": 7874,
      "##쫏": 7875,
      "##쥑": 7876,
      "##쭌": 7877,
      "##뭬": 7878,
      "##썅": 7879,
      "##ʕ": 7880,
      "##짬": 7881,
      "##죹": 7882,
      "##짆": 7883,
      "##튤": 7884,
      "##쐬": 7885,
      "##읶": 7886,
      "##꽹": 7887,
      "##뗌": 7888,
      "##듈": 7889,
      "##윳": 7890,
      "##ღ": 7891,
      "##☞": 7892,
      "##📚": 7893,
      "##욭": 7894,
      "##쪾": 7895,
      "##⑧": 7896,
      "##묹": 7897,
      "##㉯": 7898,
      "##㉱": 7899,
      "##돛": 7900,
      "##햝": 7901,
      "##🔶": 7902,
      "##앴": 7903,
      "##쉘": 7904,
      "##룔": 7905,
      "##맠": 7906,
      "##⭐": 7907,
      "##☠": 7908,
      "##봬": 7909,
      "##샅": 7910,
      "##쯩": 7911,
      "##븀": 7912,
      "##띄": 7913,
      "##씅": 7914,
      "##♀": 7915,
      "##♂": 7916,
      "##🐑": 7917,
      "##뚬": 7918,
      "##챨": 7919,
      "##엮": 7920,
      "##탬": 7921,
      "##⠀": 7922,
      "##웍": 7923,
      "##펏": 7924,
      "##ʔ": 7925,
      "##슾": 7926,
      "##껐": 7927,
      "##쭘": 7928,
      "##옳": 7929,
      "##몯": 7930,
      "##Ⅱ": 7931,
      "##눕": 7932,
      "##∑": 7933,
      "##롄": 7934,
      "##📷": 7935,
      "##춴": 7936,
      "##잰": 7937,
      "##멥": 7938,
      "##짙": 7939,
      "##펍": 7940,
      "##📣": 7941,
      "##̆": 7942,
      "##떰": 7943,
      "##끽": 7944,
      "##켐": 7945,
      "##벱": 7946,
      "##촙": 7947,
      "##￦": 7948,
      "##쳄": 7949,
      "##☝": 7950,
      "##곘": 7951,
      "##얊": 7952,
      "##뇰": 7953,
      "##닜": 7954,
      "##꿉": 7955,
      "##텡": 7956,
      "##♪": 7957,
      "##뤡": 7958,
      "##🖒": 7959,
      "##🎧": 7960,
      "##꽥": 7961,
      "##콥": 7962,
      "##굥": 7963,
      "##앍": 7964,
      "##헸": 7965,
      "##짰": 7966,
      "##삑": 7967,
      "##옶": 7968,
      "##젋": 7969,
      "##ː": 7970,
      "##꽐": 7971,
      "##⑶": 7972,
      "##귁": 7973,
      "##΄": 7974,
      "##맀": 7975,
      "##닶": 7976,
      "##몈": 7977,
      "##쮜": 7978,
      "##씰": 7979,
      "##톳": 7980,
      "##³": 7981,
      "##볌": 7982,
      "##☕": 7983,
      "##얶": 7984,
      "##엷": 7985,
      "##뭣": 7986,
      "##싳": 7987,
      "##캇": 7988,
      "##똠": 7989,
      "##껫": 7990,
      "##딨": 7991,
      "##뗀": 7992,
      "##꿎": 7993,
      "##＄": 7994,
      "##줠": 7995,
      "##뙤": 7996,
      "##먐": 7997,
      "##샾": 7998,
      "##⊙": 7999,
      "##츳": 8000,
      "##븥": 8001,
      "##땔": 8002,
      "##쳇": 8003,
      "##궂": 8004,
      "##젙": 8005,
      "##뜹": 8006,
      "##띁": 8007,
      "##꼿": 8008,
      "##좟": 8009,
      "##ᴗ": 8010,
      "##끅": 8011,
      "##®": 8012,
      "##휙": 8013,
      "##⑸": 8014,
      "##쏠": 8015,
      "##셸": 8016,
      "##꿧": 8017,
      "##퐉": 8018,
      "##얆": 8019,
      "##쥼": 8020,
      "##쟐": 8021,
      "##좄": 8022,
      "##먾": 8023,
      "##핧": 8024,
      "##멉": 8025,
      "##팹": 8026,
      "##잽": 8027,
      "##궜": 8028,
      "##♬": 8029,
      "##꿏": 8030,
      "##👄": 8031,
      "##줜": 8032,
      "##⒝": 8033,
      "##∗": 8034,
      "##뀜": 8035,
      "##뒹": 8036,
      "##๑": 8037,
      "##읭": 8038,
      "##볓": 8039,
      "##뎬": 8040,
      "##뾰": 8041,
      "##뤽": 8042,
      "##쫍": 8043,
      "##▫": 8044,
      "##꿋": 8045,
      "##슭": 8046,
      "##컫": 8047,
      "##🍠": 8048,
      "##풂": 8049,
      "##뛴": 8050,
      "##튄": 8051,
      "##㎝": 8052,
      "##싨": 8053,
      "##겪": 8054,
      "##쑬": 8055,
      "##됭": 8056,
      "##뭅": 8057,
      "##삣": 8058,
      "##앖": 8059,
      "##맬": 8060,
      "##℃": 8061,
      "##↑": 8062,
      "##뺍": 8063,
      "##✋": 8064,
      "##✊": 8065,
      "##윕": 8066,
      "##쪙": 8067,
      "##뺌": 8068,
      "##닻": 8069,
      "##휩": 8070,
      "##땋": 8071,
      "##죸": 8072,
      "##☁": 8073,
      "##굻": 8074,
      "##ෆ": 8075,
      "##폈": 8076,
      "##옜": 8077,
      "##◟": 8078,
      "##좍": 8079,
      "##씝": 8080,
      "##뀔": 8081,
      "##틔": 8082,
      "##½": 8083,
      "##뤈": 8084,
      "##좈": 8085,
      "##곪": 8086,
      "##～": 8087,
      "##픕": 8088,
      "##잆": 8089,
      "##칡": 8090,
      "##볐": 8091,
      "##㊗": 8092,
      "##̎": 8093,
      "##뱐": 8094,
      "##⑵": 8095,
      "##윘": 8096,
      "##₩": 8097,
      "##∠": 8098,
      "##💧": 8099,
      "##⫬": 8100,
      "##웸": 8101,
      "##♠": 8102,
      "##☀": 8103,
      "##ั": 8104,
      "##̑": 8105,
      "##쾰": 8106,
      "##켁": 8107,
      "##뢸": 8108,
      "##ｇ": 8109,
      "##솅": 8110,
      "##˂": 8111,
      "##쌖": 8112,
      "##촥": 8113,
      "##윔": 8114,
      "##쿱": 8115,
      "##뵌": 8116,
      "##틉": 8117,
      "##➡": 8118,
      "##낡": 8119,
      "##홱": 8120,
      "##죨": 8121,
      "##Δ": 8122,
      "##섕": 8123,
      "##솽": 8124,
      "##즹": 8125,
      "##뵜": 8126,
      "##휜": 8127,
      "##겝": 8128,
      "##₁": 8129,
      "##٩": 8130,
      "##앂": 8131,
      "##묀": 8132,
      "##㎡": 8133,
      "##✅": 8134,
      "##콸": 8135,
      "##넸": 8136,
      "##떴": 8137,
      "##͡": 8138,
      "##◎": 8139,
      "##뮛": 8140,
      "##멊": 8141,
      "##묄": 8142,
      "##㎠": 8143,
      "##쑹": 8144,
      "##앏": 8145,
      "##둿": 8146,
      "##픙": 8147,
      "##♦": 8148,
      "##럈": 8149,
      "##됄": 8150,
      "##빴": 8151,
      "##엤": 8152,
      "##Ⅴ": 8153,
      "##☏": 8154,
      "##㉠": 8155,
      "##떙": 8156,
      "##볜": 8157,
      "##샆": 8158,
      "##˙": 8159,
      "##〓": 8160,
      "##㏄": 8161,
      "##믾": 8162,
      "##쎕": 8163,
      "##땄": 8164,
      "##셑": 8165,
      "##뵨": 8166,
      "##솎": 8167,
      "##쉅": 8168,
      "##뙈": 8169,
      "##˃": 8170,
      "##💑": 8171,
      "##얐": 8172,
      "##쏵": 8173,
      "##젬": 8174,
      "##뗑": 8175,
      "##▶": 8176,
      "##맜": 8177,
      "##왝": 8178,
      "##춍": 8179,
      "##─": 8180,
      "##▪": 8181,
      "##➰": 8182,
      "##✳": 8183,
      "##쏨": 8184,
      "##튐": 8185,
      "##뤘": 8186,
      "##걘": 8187,
      "##콱": 8188,
      "##™": 8189,
      "##웽": 8190,
      "##쏫": 8191,
      "##뛸": 8192,
      "##✈": 8193,
      "##❛": 8194,
      "##˝": 8195,
      "##깸": 8196,
      "##줮": 8197,
      "##챕": 8198,
      "##㏊": 8199,
      "##쌨": 8200,
      "##쫗": 8201,
      "##읇": 8202,
      "##핣": 8203,
      "##깞": 8204,
      "##셌": 8205,
      "##뻗": 8206,
      "##딋": 8207,
      "##엾": 8208,
      "##띌": 8209,
      "##웂": 8210,
      "##⑬": 8211,
      "##⭕": 8212,
      "##◈": 8213,
      "##켬": 8214,
      "##˚": 8215,
      "##횔": 8216,
      "##놯": 8217,
      "##☹": 8218,
      "##⑫": 8219,
      "##⑭": 8220,
      "##끋": 8221,
      "##⁴": 8222,
      "##꺅": 8223,
      "##큅": 8224,
      "##곯": 8225,
      "##̐": 8226,
      "##뙇": 8227,
      "##㉡": 8228,
      "##쐇": 8229,
      "##뼘": 8230,
      "##뭡": 8231,
      "##헀": 8232,
      "##뽂": 8233,
      "##㈑": 8234,
      "##쏱": 8235,
      "##뵐": 8236,
      "##쇳": 8237,
      "##㎚": 8238,
      "##삻": 8239,
      "##←": 8240,
      "##퀭": 8241,
      "##쎘": 8242,
      "##곬": 8243,
      "##콴": 8244,
      "##욌": 8245,
      "##맗": 8246,
      "##띔": 8247,
      "##똣": 8248,
      "##몄": 8249,
      "##㉰": 8250,
      "##왱": 8251,
      "##쯥": 8252,
      "##┬": 8253,
      "##↙": 8254,
      "##덖": 8255,
      "##휀": 8256,
      "##뉠": 8257,
      "##ⓑ": 8258,
      "##㎒": 8259,
      "##쥤": 8260,
      "##휨": 8261,
      "##≪": 8262,
      "##갂": 8263,
      "##캤": 8264,
      "##눴": 8265,
      "##휑": 8266,
      "##︎": 8267,
      "##◞": 8268,
      "##㈎": 8269,
      "##뷜": 8270,
      "##깢": 8271,
      "##✧": 8272,
      "##씼": 8273,
      "##읿": 8274,
      "##팼": 8275,
      "##뉩": 8276,
      "##쎌": 8277,
      "##㎎": 8278,
      "##깩": 8279,
      "##∙": 8280,
      "##켑": 8281,
      "##쬠": 8282,
      "##멨": 8283,
      "##㎍": 8284,
      "##̊": 8285,
      "##쏩": 8286,
      "##짦": 8287,
      "##숼": 8288,
      "##웻": 8289,
      "##☑": 8290,
      "##⑷": 8291,
      "##㎞": 8292,
      "##㎏": 8293,
      "##̄": 8294,
      "##ℓ": 8295,
      "##㎖": 8296,
      "##묏": 8297,
      "##됍": 8298,
      "##⑴": 8299,
      "##㎜": 8300,
      "##죴": 8301,
      "##⇒": 8302,
      "##㈔": 8303,
      "##㎥": 8304,
      "##띈": 8305,
      "##넖": 8306,
      "##죕": 8307,
      "##쟀": 8308,
      "##✺": 8309,
      "##탰": 8310,
      "##❶": 8311,
      "##❷": 8312,
      "##▣": 8313,
      "##𖤐": 8314,
      "##삵": 8315,
      "##쐈": 8316,
      "##꿴": 8317,
      "##뱄": 8318,
      "##뀝": 8319,
      "##쐴": 8320,
      "##꼍": 8321,
      "##−": 8322,
      "##뵀": 8323,
      "##∥": 8324,
      "##튈": 8325,
      "으로": 8326,
      "에서": 8327,
      "##니다": 8328,
      "는데": 8329,
      "한다": 8330,
      "네요": 8331,
      "습니다": 8332,
      "아요": 8333,
      "사람": 8334,
      "아니": 8335,
      "어요": 8336,
      "##00": 8337,
      "지만": 8338,
      "ㅋㅋ": 8339,
      "라고": 8340,
      "까지": 8341,
      "에게": 8342,
      "합니다": 8343,
      "생각": 8344,
      "다고": 8345,
      "우리": 8346,
      "면서": 8347,
      "보다": 8348,
      "다는": 8349,
      "너무": 8350,
      "해서": 8351,
      "대한": 8352,
      "국민": 8353,
      "나라": 8354,
      "배송": 8355,
      "라는": 8356,
      "한국": 8357,
      "된다": 8358,
      "20": 8359,
      "그러": 8360,
      "때문": 8361,
      "으면": 8362,
      "해야": 8363,
      "부터": 8364,
      "사용": 8365,
      "이나": 8366,
      "입니다": 8367,
      "이런": 8368,
      "어서": 8369,
      "일본": 8370,
      "문제": 8371,
      "구매": 8372,
      "위해": 8373,
      "지금": 8374,
      "아이": 8375,
      "중국": 8376,
      "하나": 8377,
      "지난": 8378,
      "그런": 8379,
      "정부": 8380,
      "대통": 8381,
      "그리": 8382,
      "대통령": 8383,
      "##렇게": 8384,
      "만족": 8385,
      "그래": 8386,
      "다른": 8387,
      "가격": 8388,
      "사이": 8389,
      "10": 8390,
      "많이": 8391,
      "제품": 8392,
      "19": 8393,
      "진짜": 8394,
      "이상": 8395,
      "미국": 8396,
      "만들": 8397,
      "정도": 8398,
      "경제": 8399,
      "인데": 8400,
      "처럼": 8401,
      "시간": 8402,
      "세요": 8403,
      "지역": 8404,
      "정치": 8405,
      "정말": 8406,
      "가지": 8407,
      "사회": 8408,
      "이제": 8409,
      "기업": 8410,
      "경우": 8411,
      "그리고": 8412,
      "자신": 8413,
      "ㅋㅋㅋ": 8414,
      "아서": 8415,
      "민주": 8416,
      "필요": 8417,
      "사실": 8418,
      "들어": 8419,
      "201": 8420,
      "사업": 8421,
      "그냥": 8422,
      "대해": 8423,
      "북한": 8424,
      "다가": 8425,
      "따라": 8426,
      "이번": 8427,
      "해요": 8428,
      "는지": 8429,
      "서울": 8430,
      "시장": 8431,
      "문재": 8432,
      "가능": 8433,
      "감사": 8434,
      "빠르": 8435,
      "200": 8436,
      "국가": 8437,
      "마음": 8438,
      "다시": 8439,
      "인간": 8440,
      "대표": 8441,
      "는다": 8442,
      "세계": 8443,
      "통해": 8444,
      "아주": 8445,
      "관계": 8446,
      "##니까": 8447,
      "모르": 8448,
      "함께": 8449,
      "아직": 8450,
      "아닌": 8451,
      "모두": 8452,
      "시작": 8453,
      "##대로": 8454,
      "ㅎㅎ": 8455,
      "다음": 8456,
      "도록": 8457,
      "가장": 8458,
      "교육": 8459,
      "경기": 8460,
      "한테": 8461,
      "소리": 8462,
      "없이": 8463,
      "조사": 8464,
      "같이": 8465,
      "지원": 8466,
      "아무": 8467,
      "그렇": 8468,
      "##지만": 8469,
      "문재인": 8470,
      "##주의": 8471,
      "보이": 8472,
      "이렇게": 8473,
      "나오": 8474,
      "자기": 8475,
      "상황": 8476,
      "해라": 8477,
      "프로": 8478,
      "정신": 8479,
      "조국": 8480,
      "정권": 8481,
      "어야": 8482,
      "여기": 8483,
      "모든": 8484,
      "시키": 8485,
      "어떻": 8486,
      "이유": 8487,
      "위한": 8488,
      "더라": 8489,
      "관련": 8490,
      "그러나": 8491,
      "위원": 8492,
      "니까": 8493,
      "의원": 8494,
      "거나": 8495,
      "려고": 8496,
      "상품": 8497,
      "바로": 8498,
      "하지만": 8499,
      "저렴": 8500,
      "계속": 8501,
      "처음": 8502,
      "기사": 8503,
      "인가": 8504,
      "어떤": 8505,
      "사건": 8506,
      "해도": 8507,
      "12": 8508,
      "주문": 8509,
      "검찰": 8510,
      "여자": 8511,
      "사이즈": 8512,
      "괜찮": 8513,
      "이용": 8514,
      "이미": 8515,
      "라도": 8516,
      "이후": 8517,
      "최고": 8518,
      "연구": 8519,
      "결과": 8520,
      "운동": 8521,
      "회사": 8522,
      "역시": 8523,
      "인지": 8524,
      "30": 8525,
      "민주당": 8526,
      "조금": 8527,
      "무슨": 8528,
      "투자": 8529,
      "##민국": 8530,
      "밝혔": 8531,
      "얼마": 8532,
      "대한민국": 8533,
      "그래서": 8534,
      "못하": 8535,
      "11": 8536,
      "그것": 8537,
      "돌아": 8538,
      "대학": 8539,
      "100": 8540,
      "문화": 8541,
      "조선": 8542,
      "자유": 8543,
      "다면": 8544,
      "수준": 8545,
      "이야": 8546,
      "어떻게": 8547,
      "선거": 8548,
      "특히": 8549,
      "그렇게": 8550,
      "여러": 8551,
      "개발": 8552,
      "현재": 8553,
      "지지": 8554,
      "계획": 8555,
      "학교": 8556,
      "기술": 8557,
      "국회": 8558,
      "국내": 8559,
      "부분": 8560,
      "중요": 8561,
      "정책": 8562,
      "동안": 8563,
      "으며": 8564,
      "어디": 8565,
      "재앙": 8566,
      "완전": 8567,
      "후보": 8568,
      "자리": 8569,
      "15": 8570,
      "경찰": 8571,
      "디자": 8572,
      "관리": 8573,
      "당신": 8574,
      "보여": 8575,
      "영화": 8576,
      "##어나": 8577,
      "방송": 8578,
      "떨어": 8579,
      "활동": 8580,
      "##스트": 8581,
      "내용": 8582,
      "기대": 8583,
      "진행": 8584,
      "대비": 8585,
      "모습": 8586,
      "전문": 8587,
      "한다는": 8588,
      "으니": 8589,
      "가족": 8590,
      "다니": 8591,
      "이러": 8592,
      "디자인": 8593,
      "대상": 8594,
      "구입": 8595,
      "잘못": 8596,
      "이게": 8597,
      "이야기": 8598,
      "##라고": 8599,
      "수사": 8600,
      "삼성": 8601,
      "피해": 8602,
      "18": 8603,
      "편하": 8604,
      "근데": 8605,
      "효과": 8606,
      "새로": 8607,
      "만큼": 8608,
      "지난해": 8609,
      "최근": 8610,
      "정보": 8611,
      "언론": 8612,
      "설명": 8613,
      "이해": 8614,
      "오늘": 8615,
      "장관": 8616,
      "남자": 8617,
      "학생": 8618,
      "사진": 8619,
      "결정": 8620,
      "댓글": 8621,
      "과정": 8622,
      "주장": 8623,
      "은데": 8624,
      "시켜": 8625,
      "여성": 8626,
      "##부터": 8627,
      "세상": 8628,
      "올해": 8629,
      "한다고": 8630,
      "산업": 8631,
      "기록": 8632,
      "보내": 8633,
      "이것": 8634,
      "시민": 8635,
      "스타": 8636,
      "책임": 8637,
      "##거리": 8638,
      "얘기": 8639,
      "아야": 8640,
      "라면": 8641,
      "더니": 8642,
      "상태": 8643,
      "을까": 8644,
      "다양": 8645,
      "##뻐요": 8646,
      "세금": 8647,
      "사랑": 8648,
      "빠른": 8649,
      "##소리": 8650,
      "스럽": 8651,
      "당시": 8652,
      "역사": 8653,
      "선물": 8654,
      "나가": 8655,
      "##다고": 8656,
      "##머니": 8657,
      "생활": 8658,
      "대로": 8659,
      "어느": 8660,
      "이어": 8661,
      "도시": 8662,
      "운영": 8663,
      "인정": 8664,
      "나타": 8665,
      "느낌": 8666,
      "이날": 8667,
      "평가": 8668,
      "개인": 8669,
      "기자": 8670,
      "시대": 8671,
      "대구": 8672,
      "친구": 8673,
      "##비스": 8674,
      "방법": 8675,
      "그런데": 8676,
      "결국": 8677,
      "구요": 8678,
      "누구": 8679,
      "일반": 8680,
      "설치": 8681,
      "선수": 8682,
      "그럼": 8683,
      "##시아": 8684,
      "아들": 8685,
      "라며": 8686,
      "의미": 8687,
      "에요": 8688,
      "상대": 8689,
      "또한": 8690,
      "엄청": 8691,
      "어려": 8692,
      "관심": 8693,
      "얼굴": 8694,
      "직접": 8695,
      "추천": 8696,
      "맛있": 8697,
      "판매": 8698,
      "그만": 8699,
      "교수": 8700,
      "예정": 8701,
      "제대로": 8702,
      "확인": 8703,
      "금융": 8704,
      "저런": 8705,
      "하루": 8706,
      "준비": 8707,
      "머리": 8708,
      "얼마나": 8709,
      "계약": 8710,
      "업체": 8711,
      "쓰레": 8712,
      "서비스": 8713,
      "기관": 8714,
      "관계자": 8715,
      "##다는": 8716,
      "무엇": 8717,
      "발생": 8718,
      "자체": 8719,
      "쓰레기": 8720,
      "감독": 8721,
      "국제": 8722,
      "물론": 8723,
      "먼저": 8724,
      "이름": 8725,
      "OO": 8726,
      "단체": 8727,
      "##스크": 8728,
      "사고": 8729,
      "##운데": 8730,
      "기준": 8731,
      "항상": 8732,
      "공개": 8733,
      "나온": 8734,
      "마다": 8735,
      "걱정": 8736,
      "전체": 8737,
      "또는": 8738,
      "누가": 8739,
      "부모": 8740,
      "좌파": 8741,
      "발전": 8742,
      "50": 8743,
      "일부": 8744,
      "##레이": 8745,
      "정상": 8746,
      "그래도": 8747,
      "환경": 8748,
      "지나": 8749,
      "이랑": 8750,
      "보수": 8751,
      "인터": 8752,
      "새로운": 8753,
      "##러운": 8754,
      "구성": 8755,
      "기간": 8756,
      "빨리": 8757,
      "반대": 8758,
      "지방": 8759,
      "새끼": 8760,
      "현대": 8761,
      "구나": 8762,
      "박근": 8763,
      "이거": 8764,
      "참여": 8765,
      "이라고": 8766,
      "25": 8767,
      "알려": 8768,
      "OOO": 8769,
      "16": 8770,
      "따르": 8771,
      "언제": 8772,
      "내려": 8773,
      "생산": 8774,
      "성장": 8775,
      "13": 8776,
      "어도": 8777,
      "박근혜": 8778,
      "##갱이": 8779,
      "현실": 8780,
      "행사": 8781,
      "##인다": 8782,
      "들어가": 8783,
      "힘들": 8784,
      "선택": 8785,
      "제공": 8786,
      "발표": 8787,
      "규모": 8788,
      "는가": 8789,
      "경쟁": 8790,
      "입장": 8791,
      "능력": 8792,
      "##랜드": 8793,
      "가운데": 8794,
      "청와": 8795,
      "개혁": 8796,
      "이쁘": 8797,
      "올라": 8798,
      "외국": 8799,
      "청와대": 8800,
      "매우": 8801,
      "깔끔": 8802,
      "추진": 8803,
      "포함": 8804,
      "잖아": 8805,
      "빨갱이": 8806,
      "요구": 8807,
      "위해서": 8808,
      "실제": 8809,
      "노동": 8810,
      "회장": 8811,
      "포장": 8812,
      "##000": 8813,
      "해결": 8814,
      "밖에": 8815,
      "14": 8816,
      "엄마": 8817,
      "##이트": 8818,
      "제발": 8819,
      "##버지": 8820,
      "건강": 8821,
      "그녀": 8822,
      "뉴스": 8823,
      "여행": 8824,
      "부산": 8825,
      "판단": 8826,
      "17": 8827,
      "요즘": 8828,
      "성공": 8829,
      "미래": 8830,
      "못한": 8831,
      "거리": 8832,
      "예요": 8833,
      "자동": 8834,
      "중심": 8835,
      "조작": 8836,
      "노력": 8837,
      "로서": 8838,
      "인사": 8839,
      "오래": 8840,
      "정의": 8841,
      "피부": 8842,
      "해외": 8843,
      "검사": 8844,
      "병원": 8845,
      "더욱": 8846,
      "은행": 8847,
      "어린": 8848,
      "유지": 8849,
      "존재": 8850,
      "이건": 8851,
      "##부분": 8852,
      "전쟁": 8853,
      "공산": 8854,
      "아닌가": 8855,
      "구조": 8856,
      "##어요": 8857,
      "기본": 8858,
      "아파": 8859,
      "의사": 8860,
      "자연": 8861,
      "대해서": 8862,
      "고객": 8863,
      "버리": 8864,
      "추가": 8865,
      "##이스": 8866,
      "전국": 8867,
      "소비": 8868,
      "행동": 8869,
      "마련": 8870,
      "위원회": 8871,
      "만나": 8872,
      "일단": 8873,
      "시설": 8874,
      "려는": 8875,
      "최대": 8876,
      "분석": 8877,
      "똑같": 8878,
      "기능": 8879,
      "영향": 8880,
      "199": 8881,
      "변화": 8882,
      "부담": 8883,
      "가치": 8884,
      "기존": 8885,
      "그게": 8886,
      "도움": 8887,
      "40": 8888,
      "거의": 8889,
      "대회": 8890,
      "개월": 8891,
      "처리": 8892,
      "기회": 8893,
      "지적": 8894,
      "경영": 8895,
      "안전": 8896,
      "나요": 8897,
      "대부분": 8898,
      "##구요": 8899,
      "주민": 8900,
      "공동": 8901,
      "##그램": 8902,
      "범죄": 8903,
      "##라도": 8904,
      "서로": 8905,
      "나와": 8906,
      "직원": 8907,
      "색상": 8908,
      "당연": 8909,
      "센터": 8910,
      "거짓": 8911,
      "지요": 8912,
      "찾아": 8913,
      "특별": 8914,
      "확실": 8915,
      "활용": 8916,
      "방식": 8917,
      "전화": 8918,
      "##무원": 8919,
      "나왔": 8920,
      "김정": 8921,
      "드러": 8922,
      "증가": 8923,
      "조직": 8924,
      "마스크": 8925,
      "고민": 8926,
      "바라": 8927,
      "##가리": 8928,
      "규정": 8929,
      "##으며": 8930,
      "프로그램": 8931,
      "보험": 8932,
      "##려고": 8933,
      "작품": 8934,
      "만든": 8935,
      "예쁘": 8936,
      "차이": 8937,
      "제도": 8938,
      "건설": 8939,
      "##스로": 8940,
      "거기": 8941,
      "한편": 8942,
      "보호": 8943,
      "해당": 8944,
      "##없이": 8945,
      "행위": 8946,
      "못했": 8947,
      "오후": 8948,
      "표현": 8949,
      "ㅉㅉ": 8950,
      "적극": 8951,
      "집단": 8952,
      "건데": 8953,
      "중앙": 8954,
      "비교": 8955,
      "스스로": 8956,
      "자식": 8957,
      "예상": 8958,
      "달러": 8959,
      "본인": 8960,
      "##리아": 8961,
      "역할": 8962,
      "배우": 8963,
      "경험": 8964,
      "거래": 8965,
      "##라이": 8966,
      "한데": 8967,
      "##진다": 8968,
      "아버지": 8969,
      "주택": 8970,
      "치료": 8971,
      "우선": 8972,
      "그대로": 8973,
      "절대": 8974,
      "24": 8975,
      "기다": 8976,
      "회의": 8977,
      "이루": 8978,
      "##해서": 8979,
      "##린다": 8980,
      "내년": 8981,
      "공부": 8982,
      "그때": 8983,
      "바람": 8984,
      "광주": 8985,
      "다만": 8986,
      "이전": 8987,
      "##천지": 8988,
      "##자리": 8989,
      "남편": 8990,
      "봐야": 8991,
      "봐라": 8992,
      "보인다": 8993,
      "로부터": 8994,
      "분야": 8995,
      "나이": 8996,
      "업무": 8997,
      "과거": 8998,
      "##동안": 8999,
      "지도": 9000,
      "강조": 9001,
      "강화": 9002,
      "공무원": 9003,
      "확대": 9004,
      "주변": 9005,
      "관광": 9006,
      "적용": 9007,
      "정당": 9008,
      "아파트": 9009,
      "다르": 9010,
      "게임": 9011,
      "##구나": 9012,
      "##가지": 9013,
      "21": 9014,
      "적당": 9015,
      "제일": 9016,
      "신천지": 9017,
      "결혼": 9018,
      "여름": 9019,
      "비판": 9020,
      "탄핵": 9021,
      "##er": 9022,
      "자주": 9023,
      "권력": 9024,
      "시즌": 9025,
      "와서": 9026,
      "그룹": 9027,
      "전략": 9028,
      "더라도": 9029,
      "거든": 9030,
      "행정": 9031,
      "부족": 9032,
      "시스": 9033,
      "공사": 9034,
      "미친": 9035,
      "여론": 9036,
      "위기": 9037,
      "공간": 9038,
      "됩니다": 9039,
      "현장": 9040,
      "어렵": 9041,
      "구속": 9042,
      "자동차": 9043,
      "의료": 9044,
      "튼튼": 9045,
      "상당": 9046,
      "선동": 9047,
      "부정": 9048,
      "개선": 9049,
      "전망": 9050,
      "보도": 9051,
      "##시다": 9052,
      "피고": 9053,
      "이익": 9054,
      "외교": 9055,
      "비용": 9056,
      "이뻐요": 9057,
      "의견": 9058,
      "기억": 9059,
      "ㅠㅠ": 9060,
      "대신": 9061,
      "마지": 9062,
      "출신": 9063,
      "과학": 9064,
      "오히": 9065,
      "부동": 9066,
      "통합": 9067,
      "##의원": 9068,
      "오히려": 9069,
      "전혀": 9070,
      "으로서": 9071,
      "총선": 9072,
      "세월": 9073,
      "목적": 9074,
      "냄새": 9075,
      "인터넷": 9076,
      "아기": 9077,
      "##로나": 9078,
      "위험": 9079,
      "방문": 9080,
      "사장": 9081,
      "23": 9082,
      "시스템": 9083,
      "관한": 9084,
      "지속": 9085,
      "##워서": 9086,
      "금지": 9087,
      "##나라": 9088,
      "이사": 9089,
      "비롯": 9090,
      "브랜드": 9091,
      "지급": 9092,
      "고려": 9093,
      "22": 9094,
      "혼자": 9095,
      "만드": 9096,
      "올리": 9097,
      "기분": 9098,
      "바이": 9099,
      "인천": 9100,
      "부동산": 9101,
      "##너지": 9102,
      "수출": 9103,
      "마지막": 9104,
      "##마트": 9105,
      "텐데": 9106,
      "원고": 9107,
      "투표": 9108,
      "사무": 9109,
      "약간": 9110,
      "작업": 9111,
      "평화": 9112,
      "목표": 9113,
      "원래": 9114,
      "분명": 9115,
      "느냐": 9116,
      "불편": 9117,
      "충분": 9118,
      "부드": 9119,
      "공급": 9120,
      "전부": 9121,
      "##어난": 9122,
      "아라": 9123,
      "물건": 9124,
      "예산": 9125,
      "공격": 9126,
      "분위": 9127,
      "더불": 9128,
      "인생": 9129,
      "대책": 9130,
      "지켜": 9131,
      "사라": 9132,
      "상승": 9133,
      "따라서": 9134,
      "주식": 9135,
      "행복": 9136,
      "진정": 9137,
      "순간": 9138,
      "코로나": 9139,
      "판결": 9140,
      "넘어": 9141,
      "에선": 9142,
      "안정": 9143,
      "##심히": 9144,
      "실시": 9145,
      "조아": 9146,
      "위원장": 9147,
      "말씀": 9148,
      "시원": 9149,
      "가볍": 9150,
      "누리": 9151,
      "국회의원": 9152,
      "모양": 9153,
      "선생": 9154,
      "단계": 9155,
      "감정": 9156,
      "##세요": 9157,
      "신경": 9158,
      "환자": 9159,
      "음식": 9160,
      "예뻐요": 9161,
      "분위기": 9162,
      "자료": 9163,
      "소득": 9164,
      "전문가": 9165,
      "교회": 9166,
      "달리": 9167,
      "으로써": 9168,
      "아베": 9169,
      "라서": 9170,
      "당하": 9171,
      "민족": 9172,
      "재판": 9173,
      "신청": 9174,
      "움직": 9175,
      "시기": 9176,
      "으면서": 9177,
      "살아": 9178,
      "집중": 9179,
      "유럽": 9180,
      "##한다": 9181,
      "증거": 9182,
      "품질": 9183,
      "가까": 9184,
      "승리": 9185,
      "주인": 9186,
      "주요": 9187,
      "건지": 9188,
      "그램": 9189,
      "여야": 9190,
      "열린": 9191,
      "자금": 9192,
      "는구나": 9193,
      "친일": 9194,
      "따뜻": 9195,
      "제작": 9196,
      "열심히": 9197,
      "처벌": 9198,
      "가진": 9199,
      "으나": 9200,
      "독재": 9201,
      "##전자": 9202,
      "사과": 9203,
      "조정": 9204,
      "음악": 9205,
      "합의": 9206,
      "##라인": 9207,
      "가져": 9208,
      "광고": 9209,
      "신문": 9210,
      "청소": 9211,
      "차지": 9212,
      "고요": 9213,
      "건가": 9214,
      "신고": 9215,
      "대응": 9216,
      "세력": 9217,
      "의식": 9218,
      "아침": 9219,
      "##디어": 9220,
      "##on": 9221,
      "##돼지": 9222,
      "훨씬": 9223,
      "26": 9224,
      "수익": 9225,
      "##른다": 9226,
      "어머니": 9227,
      "27": 9228,
      "공장": 9229,
      "정확": 9230,
      "인식": 9231,
      "시절": 9232,
      "대체": 9233,
      "노조": 9234,
      "##럼프": 9235,
      "협력": 9236,
      "공정": 9237,
      "복지": 9238,
      "어라": 9239,
      "겨울": 9240,
      "재산": 9241,
      "단지": 9242,
      "발견": 9243,
      "불법": 9244,
      "하고": 9245,
      "위치": 9246,
      "해야지": 9247,
      "앞서": 9248,
      "셔서": 9249,
      "비슷": 9250,
      "동시": 9251,
      "보고": 9252,
      "트럼프": 9253,
      "##려서": 9254,
      "가성": 9255,
      "시행": 9256,
      "60": 9257,
      "안타": 9258,
      "인상": 9259,
      "돌아가": 9260,
      "겁니다": 9261,
      "지구": 9262,
      "마을": 9263,
      "개돼지": 9264,
      "조치": 9265,
      "가정": 9266,
      "어쩌": 9267,
      "목소리": 9268,
      "확보": 9269,
      "영업": 9270,
      "비해": 9271,
      "##러스": 9272,
      "각각": 9273,
      "생명": 9274,
      "##드시": 9275,
      "화장": 9276,
      "연결": 9277,
      "28": 9278,
      "전자": 9279,
      "반드시": 9280,
      "우려": 9281,
      "평균": 9282,
      "아무리": 9283,
      "모델": 9284,
      "소재": 9285,
      "종교": 9286,
      "롯데": 9287,
      "매일": 9288,
      "변호": 9289,
      "사태": 9290,
      "##in": 9291,
      "한심": 9292,
      "떠나": 9293,
      "대출": 9294,
      "198": 9295,
      "시켰": 9296,
      "##으나": 9297,
      "아마": 9298,
      "국정": 9299,
      "##어지": 9300,
      "높이": 9301,
      "인기": 9302,
      "가슴": 9303,
      "인물": 9304,
      "질문": 9305,
      "대단": 9306,
      "조성": 9307,
      "려면": 9308,
      "유치": 9309,
      "공연": 9310,
      "보였": 9311,
      "리그": 9312,
      "수입": 9313,
      "빨라": 9314,
      "선정": 9315,
      "아래": 9316,
      "작가": 9317,
      "예술": 9318,
      "개정": 9319,
      "듯이": 9320,
      "김정은": 9321,
      "##께요": 9322,
      "논리": 9323,
      "제기": 9324,
      "카드": 9325,
      "듭니다": 9326,
      "##기업": 9327,
      "혐의": 9328,
      "떨어지": 9329,
      "이하": 9330,
      "매출": 9331,
      "연기": 9332,
      "그걸": 9333,
      "영국": 9334,
      "어찌": 9335,
      "본다": 9336,
      "통신": 9337,
      "제주": 9338,
      "교통": 9339,
      "스러": 9340,
      "돼지": 9341,
      "##게요": 9342,
      "노래": 9343,
      "참석": 9344,
      "일자리": 9345,
      "그랬": 9346,
      "지키": 9347,
      "70": 9348,
      "느끼": 9349,
      "##수록": 9350,
      "##아들": 9351,
      "그림": 9352,
      "마치": 9353,
      "소비자": 9354,
      "따른": 9355,
      "마시": 9356,
      "전기": 9357,
      "글로": 9358,
      "세대": 9359,
      "유명": 9360,
      "##리스": 9361,
      "그동안": 9362,
      "고자": 9363,
      "달라": 9364,
      "대화": 9365,
      "습니까": 9366,
      "독립": 9367,
      "제시": 9368,
      "시험": 9369,
      "임금": 9370,
      "가짜": 9371,
      "LG": 9372,
      "드라": 9373,
      "던데": 9374,
      "건물": 9375,
      "시킨": 9376,
      "대하": 9377,
      "피해자": 9378,
      "아님": 9379,
      "도대": 9380,
      "야당": 9381,
      "##자기": 9382,
      "##an": 9383,
      "고급": 9384,
      "핵심": 9385,
      "정리": 9386,
      "도대체": 9387,
      "사기": 9388,
      "이래": 9389,
      "##일보": 9390,
      "이르": 9391,
      "자한": 9392,
      "스마트": 9393,
      "거짓말": 9394,
      "으니까": 9395,
      "희망": 9396,
      "독일": 9397,
      "올림": 9398,
      "이뤄": 9399,
      "프랑": 9400,
      "중소": 9401,
      "장애": 9402,
      "하늘": 9403,
      "소속": 9404,
      "사상": 9405,
      "차례": 9406,
      "글로벌": 9407,
      "법원": 9408,
      "##ㅋㅋ": 9409,
      "아도": 9410,
      "통일": 9411,
      "아프": 9412,
      "너희": 9413,
      "최소": 9414,
      "##레스": 9415,
      "의혹": 9416,
      "총장": 9417,
      "반면": 9418,
      "부르": 9419,
      "주제": 9420,
      "종합": 9421,
      "##다가": 9422,
      "##조건": 9423,
      "방향": 9424,
      "일정": 9425,
      "내부": 9426,
      "의하": 9427,
      "ㅎㅎㅎ": 9428,
      "차량": 9429,
      "개념": 9430,
      "대가리": 9431,
      "장기": 9432,
      "대선": 9433,
      "한다면": 9434,
      "밝혀": 9435,
      "진보": 9436,
      "방안": 9437,
      "토착": 9438,
      "##이어": 9439,
      "비리": 9440,
      "##인트": 9441,
      "지식": 9442,
      "무조건": 9443,
      "원인": 9444,
      "청년": 9445,
      "조건": 9446,
      "##or": 9447,
      "착용": 9448,
      "보통": 9449,
      "한당": 9450,
      "청구": 9451,
      "##므로": 9452,
      "도로": 9453,
      "일어나": 9454,
      "별로": 9455,
      "인권": 9456,
      "사항": 9457,
      "소설": 9458,
      "입국": 9459,
      "사망": 9460,
      "노인": 9461,
      "외국인": 9462,
      "형태": 9463,
      "도입": 9464,
      "가구": 9465,
      "구만": 9466,
      "꾸준": 9467,
      "무능": 9468,
      "생기": 9469,
      "29": 9470,
      "크기": 9471,
      "TV": 9472,
      "에너지": 9473,
      "의해": 9474,
      "규제": 9475,
      "도착": 9476,
      "이동": 9477,
      "##어들": 9478,
      "금액": 9479,
      "오전": 9480,
      "더라구요": 9481,
      "나온다": 9482,
      "응원": 9483,
      "불안": 9484,
      "올림픽": 9485,
      "자본": 9486,
      "인도": 9487,
      "바뀌": 9488,
      "각종": 9489,
      "적폐": 9490,
      "이젠": 9491,
      "당장": 9492,
      "오르": 9493,
      "SK": 9494,
      "요청": 9495,
      "어려운": 9496,
      "그거": 9497,
      "할까": 9498,
      "강력": 9499,
      "소개": 9500,
      "전통": 9501,
      "으로부터": 9502,
      "현상": 9503,
      "자격": 9504,
      "훈련": 9505,
      "여전": 9506,
      "논의": 9507,
      "최초": 9508,
      "뭔가": 9509,
      "남성": 9510,
      "빠져": 9511,
      "실제로": 9512,
      "조용": 9513,
      "단순": 9514,
      "나쁜": 9515,
      "##해요": 9516,
      "바꾸": 9517,
      "궁금": 9518,
      "영상": 9519,
      "나중": 9520,
      "무시": 9521,
      "인해": 9522,
      "참가": 9523,
      "전시": 9524,
      "진실": 9525,
      "80": 9526,
      "러시아": 9527,
      "수행": 9528,
      "자세": 9529,
      "가리": 9530,
      "자꾸": 9531,
      "그럴": 9532,
      "대변": 9533,
      "나서": 9534,
      "촉촉": 9535,
      "올려": 9536,
      "거든요": 9537,
      "31": 9538,
      "왜구": 9539,
      "성과": 9540,
      "인구": 9541,
      "수도": 9542,
      "파악": 9543,
      "등록": 9544,
      "공공": 9545,
      "포기": 9546,
      "지난달": 9547,
      "프랑스": 9548,
      "여부": 9549,
      "제외": 9550,
      "께서": 9551,
      "공식": 9552,
      "##이터": 9553,
      "나무": 9554,
      "어린이": 9555,
      "협의": 9556,
      "교사": 9557,
      "##으면": 9558,
      "줘야": 9559,
      "##이지": 9560,
      "체험": 9561,
      "갑자기": 9562,
      "실패": 9563,
      "준다": 9564,
      "심각": 9565,
      "담당": 9566,
      "반응": 9567,
      "마찬": 9568,
      "이미지": 9569,
      "므로": 9570,
      "자는": 9571,
      "도와": 9572,
      "##BS": 9573,
      "고용": 9574,
      "무대": 9575,
      "재정": 9576,
      "스러운": 9577,
      "발언": 9578,
      "법무": 9579,
      "유통": 9580,
      "혁신": 9581,
      "평소": 9582,
      "드라마": 9583,
      "기획": 9584,
      "민주주의": 9585,
      "이명": 9586,
      "네이": 9587,
      "대형": 9588,
      "마찬가지": 9589,
      "예전": 9590,
      "펀드": 9591,
      "소유": 9592,
      "라이": 9593,
      "시청": 9594,
      "등장": 9595,
      "불과": 9596,
      "최저": 9597,
      "차원": 9598,
      "살짝": 9599,
      "문학": 9600,
      "느껴": 9601,
      "군사": 9602,
      "논란": 9603,
      "주도": 9604,
      "업계": 9605,
      "출연": 9606,
      "스포": 9607,
      "거부": 9608,
      "대전": 9609,
      "사례": 9610,
      "군대": 9611,
      "아시아": 9612,
      "서민": 9613,
      "수요": 9614,
      "연금": 9615,
      "솔직": 9616,
      "저희": 9617,
      "살인": 9618,
      "##이크": 9619,
      "체제": 9620,
      "끼리": 9621,
      "바르": 9622,
      "집회": 9623,
      "가입": 9624,
      "불러": 9625,
      "총리": 9626,
      "내리": 9627,
      "임명": 9628,
      "따로": 9629,
      "의무": 9630,
      "포인트": 9631,
      "의한": 9632,
      "어울": 9633,
      "제한": 9634,
      "세기": 9635,
      "##en": 9636,
      "는데요": 9637,
      "내놓": 9638,
      "속도": 9639,
      "난리": 9640,
      "깨끗": 9641,
      "부대": 9642,
      "아름": 9643,
      "된다는": 9644,
      "오른": 9645,
      "강남": 9646,
      "고통": 9647,
      "스타일": 9648,
      "재미": 9649,
      "자산": 9650,
      "구체": 9651,
      "알아": 9652,
      "친절": 9653,
      "제조": 9654,
      "가르": 9655,
      "000": 9656,
      "소송": 9657,
      "변호사": 9658,
      "일으": 9659,
      "남북": 9660,
      "개최": 9661,
      "나올": 9662,
      "지정": 9663,
      "연합": 9664,
      "보유": 9665,
      "이곳": 9666,
      "드리": 9667,
      "손해": 9668,
      "지하": 9669,
      "분양": 9670,
      "황교": 9671,
      "축구": 9672,
      "감소": 9673,
      "받아들": 9674,
      "일까": 9675,
      "전했": 9676,
      "촛불": 9677,
      "된다고": 9678,
      "검토": 9679,
      "할머니": 9680,
      "일상": 9681,
      "미리": 9682,
      "나타났": 9683,
      "꾸준히": 9684,
      "동물": 9685,
      "##학교": 9686,
      "선보": 9687,
      "달창": 9688,
      "정치인": 9689,
      "절차": 9690,
      "선발": 9691,
      "모자": 9692,
      "코스": 9693,
      "여전히": 9694,
      "한국인": 9695,
      "조차": 9696,
      "500": 9697,
      "아내": 9698,
      "전환": 9699,
      "전달": 9700,
      "미사": 9701,
      "해석": 9702,
      "흔들": 9703,
      "설립": 9704,
      "##져서": 9705,
      "초등": 9706,
      "자원": 9707,
      "상관": 9708,
      "2000": 9709,
      "의심": 9710,
      "스포츠": 9711,
      "협상": 9712,
      "부인": 9713,
      "사전": 9714,
      "다리": 9715,
      "우승": 9716,
      "이기": 9717,
      "작년": 9718,
      "냐고": 9719,
      "신발": 9720,
      "이끌": 9721,
      "굉장": 9722,
      "봐도": 9723,
      "여러분": 9724,
      "##으니": 9725,
      "노무": 9726,
      "벌써": 9727,
      "아쉬": 9728,
      "비율": 9729,
      "부문": 9730,
      "라니": 9731,
      "그건": 9732,
      "체계": 9733,
      "대중": 9734,
      "아빠": 9735,
      "공산당": 9736,
      "진출": 9737,
      "신뢰": 9738,
      "전라도": 9739,
      "약속": 9740,
      "직장": 9741,
      "주목": 9742,
      "근로": 9743,
      "성적": 9744,
      "장난": 9745,
      "던지": 9746,
      "부드럽": 9747,
      "나머": 9748,
      "근무": 9749,
      "으려": 9750,
      "유리": 9751,
      "스트": 9752,
      "만약": 9753,
      "보장": 9754,
      "##아가": 9755,
      "부탁": 9756,
      "확실히": 9757,
      "회담": 9758,
      "취업": 9759,
      "판사": 9760,
      "샀어요": 9761,
      "회복": 9762,
      "재질": 9763,
      "기초": 9764,
      "권리": 9765,
      "중국인": 9766,
      "차별": 9767,
      "##운드": 9768,
      "##아먹": 9769,
      "금리": 9770,
      "당연히": 9771,
      "출시": 9772,
      "부끄": 9773,
      "갈등": 9774,
      "영어": 9775,
      "눈물": 9776,
      "항공": 9777,
      "프리": 9778,
      "아닐": 9779,
      "지지율": 9780,
      "##at": 9781,
      "평생": 9782,
      "시도": 9783,
      "##아지": 9784,
      "자랑": 9785,
      "조립": 9786,
      "근거": 9787,
      "제출": 9788,
      "원칙": 9789,
      "기반": 9790,
      "저녁": 9791,
      "죽이": 9792,
      "바닥": 9793,
      "사퇴": 9794,
      "최종": 9795,
      "반영": 9796,
      "경기도": 9797,
      "그러니까": 9798,
      "위반": 9799,
      "할인": 9800,
      "불구": 9801,
      "##요일": 9802,
      "##es": 9803,
      "철저": 9804,
      "혜택": 9805,
      "버렸": 9806,
      "나머지": 9807,
      "블랙": 9808,
      "##어진": 9809,
      "자고": 9810,
      "무서": 9811,
      "나타나": 9812,
      "본부": 9813,
      "분기": 9814,
      "보상": 9815,
      "미세": 9816,
      "굉장히": 9817,
      "살펴": 9818,
      "의지": 9819,
      "확정": 9820,
      "자녀": 9821,
      "하나님": 9822,
      "민간": 9823,
      "변경": 9824,
      "197": 9825,
      "했었": 9826,
      "마리": 9827,
      "동네": 9828,
      "인제": 9829,
      "걸리": 9830,
      "기념": 9831,
      "법인": 9832,
      "통과": 9833,
      "울산": 9834,
      "가만": 9835,
      "걸로": 9836,
      "나경": 9837,
      "쇼핑": 9838,
      "화면": 9839,
      "구축": 9840,
      "부부": 9841,
      "증권": 9842,
      "매장": 9843,
      "우수": 9844,
      "피고인": 9845,
      "후기": 9846,
      "##ar": 9847,
      "##al": 9848,
      "##마자": 9849,
      "휴대": 9850,
      "다행": 9851,
      "여당": 9852,
      "중소기업": 9853,
      "아닙": 9854,
      "기부": 9855,
      "아쉽": 9856,
      "이란": 9857,
      "강제": 9858,
      "편해요": 9859,
      "바꿔": 9860,
      "##립니다": 9861,
      "특정": 9862,
      "미사일": 9863,
      "힘든": 9864,
      "전하": 9865,
      "자마자": 9866,
      "경남": 9867,
      "본격": 9868,
      "이걸": 9869,
      "이재": 9870,
      "시킬": 9871,
      "자국": 9872,
      "##가락": 9873,
      "누군": 9874,
      "홍보": 9875,
      "버스": 9876,
      "올랐": 9877,
      "불리": 9878,
      "##사자": 9879,
      "기다리": 9880,
      "충분히": 9881,
      "감염": 9882,
      "##란다": 9883,
      "다녀": 9884,
      "공감": 9885,
      "고등": 9886,
      "주로": 9887,
      "성능": 9888,
      "동일": 9889,
      "##반기": 9890,
      "하락": 9891,
      "##려야": 9892,
      "심판": 9893,
      "##학생": 9894,
      "국방": 9895,
      "위하": 9896,
      "임대": 9897,
      "나경원": 9898,
      "##he": 9899,
      "당선": 9900,
      "죽음": 9901,
      "무기": 9902,
      "2015": 9903,
      "안보": 9904,
      "완전히": 9905,
      "편안": 9906,
      "공원": 9907,
      "양심": 9908,
      "선언": 9909,
      "든지": 9910,
      "##은행": 9911,
      "공항": 9912,
      "형성": 9913,
      "무역": 9914,
      "특징": 9915,
      "알려졌": 9916,
      "심리": 9917,
      "90": 9918,
      "##BC": 9919,
      "색깔": 9920,
      "처분": 9921,
      "##우스": 9922,
      "무리": 9923,
      "300": 9924,
      "비난": 9925,
      "수술": 9926,
      "2012": 9927,
      "동의": 9928,
      "촬영": 9929,
      "잖아요": 9930,
      "2010": 9931,
      "없애": 9932,
      "온라인": 9933,
      "간다": 9934,
      "중간": 9935,
      "월드": 9936,
      "35": 9937,
      "미치": 9938,
      "연속": 9939,
      "고생": 9940,
      "과연": 9941,
      "할지": 9942,
      "의회": 9943,
      "넉넉": 9944,
      "##어났": 9945,
      "##이션": 9946,
      "건조": 9947,
      "크림": 9948,
      "몰라": 9949,
      "커피": 9950,
      "원전": 9951,
      "수석": 9952,
      "헌법": 9953,
      "간단": 9954,
      "사법": 9955,
      "허리": 9956,
      "시위": 9957,
      "언급": 9958,
      "현지": 9959,
      "가득": 9960,
      "매국": 9961,
      "작성": 9962,
      "토지": 9963,
      "던가": 9964,
      "윤석": 9965,
      "조합": 9966,
      "생겼": 9967,
      "비싸": 9968,
      "학년": 9969,
      "##무리": 9970,
      "달려": 9971,
      "점점": 9972,
      "완성": 9973,
      "집안": 9974,
      "호텔": 9975,
      "활성": 9976,
      "을지": 9977,
      "네이버": 9978,
      "수상": 9979,
      "라인": 9980,
      "노무현": 9981,
      "##디오": 9982,
      "소식": 9983,
      "건축": 9984,
      "일제": 9985,
      "경북": 9986,
      "하이": 9987,
      "으려고": 9988,
      "소통": 9989,
      "바보": 9990,
      "제안": 9991,
      "다며": 9992,
      "뿌리": 9993,
      "생긴": 9994,
      "덕분": 9995,
      "카페": 9996,
      "자극": 9997,
      "##거운": 9998,
      "도전": 9999,
      "황교안": 10000,
      "돌려": 10001,
      "망하": 10002,
      "혹은": 10003,
      "들어오": 10004,
      "1000": 10005,
      "교체": 10006,
      "취소": 10007,
      "협회": 10008,
      "짜리": 10009,
      "사정": 10010,
      "아냐": 10011,
      "교환": 10012,
      "##간다": 10013,
      "토론": 10014,
      "고소": 10015,
      "골프": 10016,
      "법률": 10017,
      "나누": 10018,
      "차리": 10019,
      "2014": 10020,
      "집행": 10021,
      "중단": 10022,
      "좋아": 10023,
      "회원": 10024,
      "그저": 10025,
      "레기": 10026,
      "##스터": 10027,
      "반성": 10028,
      "전형": 10029,
      "역대": 10030,
      "식품": 10031,
      "수업": 10032,
      "귀여": 10033,
      "거쳐": 10034,
      "로운": 10035,
      "전해": 10036,
      "장소": 10037,
      "주의": 10038,
      "운전": 10039,
      "주일": 10040,
      "어쩔": 10041,
      "바다": 10042,
      "바라보": 10043,
      "체육": 10044,
      "혹시": 10045,
      "자살": 10046,
      "지배": 10047,
      "유일": 10048,
      "조절": 10049,
      "축제": 10050,
      "솔직히": 10051,
      "언어": 10052,
      "이명박": 10053,
      "인력": 10054,
      "대변인": 10055,
      "대답": 10056,
      "맞춰": 10057,
      "성격": 10058,
      "모아": 10059,
      "선진": 10060,
      "혁명": 10061,
      "학습": 10062,
      "이리": 10063,
      "몰랐": 10064,
      "베트": 10065,
      "통화": 10066,
      "친일파": 10067,
      "인수": 10068,
      "둘러": 10069,
      "야구": 10070,
      "조심": 10071,
      "방침": 10072,
      "택시": 10073,
      "마무리": 10074,
      "시각": 10075,
      "눈치": 10076,
      "했으며": 10077,
      "직업": 10078,
      "어제": 10079,
      "가방": 10080,
      "초기": 10081,
      "##라리": 10082,
      "열리": 10083,
      "브라": 10084,
      "##st": 10085,
      "세트": 10086,
      "불쌍": 10087,
      "진심": 10088,
      "박정": 10089,
      "사유": 10090,
      "그러면": 10091,
      "실적": 10092,
      "위안": 10093,
      "박스": 10094,
      "지랄": 10095,
      "어차": 10096,
      "고개": 10097,
      "아름다": 10098,
      "삼성전자": 10099,
      "원장": 10100,
      "월급": 10101,
      "어차피": 10102,
      "들여": 10103,
      "심사": 10104,
      "2011": 10105,
      "구분": 10106,
      "목숨": 10107,
      "키우": 10108,
      "경쟁력": 10109,
      "연구원": 10110,
      "태도": 10111,
      "2008": 10112,
      "2013": 10113,
      "빠지": 10114,
      "강한": 10115,
      "졸업": 10116,
      "사회주의": 10117,
      "통한": 10118,
      "꼼꼼": 10119,
      "느라": 10120,
      "##마디": 10121,
      "오랜": 10122,
      "봉사": 10123,
      "마감": 10124,
      "의도": 10125,
      "##려라": 10126,
      "##이팅": 10127,
      "늘어나": 10128,
      "상상": 10129,
      "군요": 10130,
      "##반도": 10131,
      "싸움": 10132,
      "2016": 10133,
      "2009": 10134,
      "난다": 10135,
      "간첩": 10136,
      "무식": 10137,
      "사이트": 10138,
      "표정": 10139,
      "아예": 10140,
      "연예": 10141,
      "노동자": 10142,
      "상담": 10143,
      "제목": 10144,
      "폭력": 10145,
      "합리": 10146,
      "물질": 10147,
      "체결": 10148,
      "동생": 10149,
      "미군": 10150,
      "특성": 10151,
      "지사": 10152,
      "희생": 10153,
      "인한": 10154,
      "##라지": 10155,
      "##바로": 10156,
      "작용": 10157,
      "봅니다": 10158,
      "덧붙": 10159,
      "타이": 10160,
      "베트남": 10161,
      "##스타": 10162,
      "더러운": 10163,
      "바이러스": 10164,
      "인터뷰": 10165,
      "한마디": 10166,
      "서울대": 10167,
      "이론": 10168,
      "검색": 10169,
      "케이": 10170,
      "##ic": 10171,
      "하여": 10172,
      "밝히": 10173,
      "##먼지": 10174,
      "청소년": 10175,
      "대법": 10176,
      "설계": 10177,
      "계산": 10178,
      "대사": 10179,
      "요소": 10180,
      "가벼": 10181,
      "드렸": 10182,
      "천만": 10183,
      "등급": 10184,
      "챙겨": 10185,
      "외부": 10186,
      "부자": 10187,
      "지시": 10188,
      "주말": 10189,
      "한반도": 10190,
      "##이드": 10191,
      "접근": 10192,
      "바리": 10193,
      "당국": 10194,
      "##정부": 10195,
      "영역": 10196,
      "사형": 10197,
      "나갈": 10198,
      "미세먼지": 10199,
      "물러": 10200,
      "계기": 10201,
      "통제": 10202,
      "바탕": 10203,
      "놀라": 10204,
      "차라리": 10205,
      "줄이": 10206,
      "나쁘": 10207,
      "잠시": 10208,
      "실수": 10209,
      "연장": 10210,
      "스마트폰": 10211,
      "향후": 10212,
      "시점": 10213,
      "강원": 10214,
      "수원": 10215,
      "원심": 10216,
      "자치": 10217,
      "창업": 10218,
      "편리": 10219,
      "고양": 10220,
      "법무부": 10221,
      "앞두": 10222,
      "청문": 10223,
      "답답": 10224,
      "측면": 10225,
      "신용": 10226,
      "선고": 10227,
      "제거": 10228,
      "마케": 10229,
      "올라가": 10230,
      "요리": 10231,
      "길이": 10232,
      "인하": 10233,
      "시리": 10234,
      "공유": 10235,
      "는다는": 10236,
      "폐지": 10237,
      "196": 10238,
      "매년": 10239,
      "모여": 10240,
      "인민": 10241,
      "전반": 10242,
      "웃음": 10243,
      "상식": 10244,
      "달성": 10245,
      "여유": 10246,
      "효율": 10247,
      "채권": 10248,
      "주가": 10249,
      "컴퓨": 10250,
      "베이": 10251,
      "나섰": 10252,
      "아용": 10253,
      "##다보": 10254,
      "개소리": 10255,
      "웃기": 10256,
      "출발": 10257,
      "진단": 10258,
      "##라스": 10259,
      "재단": 10260,
      "##벤트": 10261,
      "투입": 10262,
      "##it": 10263,
      "특수": 10264,
      "##난다": 10265,
      "이때": 10266,
      "배치": 10267,
      "결론": 10268,
      "고맙": 10269,
      "확산": 10270,
      "이벤트": 10271,
      "동원": 10272,
      "##랍니다": 10273,
      "창조": 10274,
      "멍청": 10275,
      "철학": 10276,
      "돌리": 10277,
      "마케팅": 10278,
      "단어": 10279,
      "집권": 10280,
      "##고기": 10281,
      "수처": 10282,
      "조선일보": 10283,
      "분노": 10284,
      "저지": 10285,
      "##다니": 10286,
      "공기": 10287,
      "어야지": 10288,
      "강하": 10289,
      "장사": 10290,
      "제정": 10291,
      "##20": 10292,
      "##스코": 10293,
      "이탈": 10294,
      "박사": 10295,
      "##화점": 10296,
      "합시다": 10297,
      "##프트": 10298,
      "인근": 10299,
      "남불": 10300,
      "훌륭": 10301,
      "채용": 10302,
      "위협": 10303,
      "36": 10304,
      "인증": 10305,
      "최악": 10306,
      "불가": 10307,
      "종류": 10308,
      "불매": 10309,
      "학원": 10310,
      "구역": 10311,
      "그나": 10312,
      "순위": 10313,
      "수용": 10314,
      "공산주의": 10315,
      "미술": 10316,
      "우한": 10317,
      "대박": 10318,
      "참고": 10319,
      "강추": 10320,
      "전용": 10321,
      "쳐먹": 10322,
      "비중": 10323,
      "범위": 10324,
      "컴퓨터": 10325,
      "유시": 10326,
      "장면": 10327,
      "연락": 10328,
      "가량": 10329,
      "예방": 10330,
      "프로젝": 10331,
      "니다": 10332,
      "나눠": 10333,
      "당한": 10334,
      "청원": 10335,
      "신기": 10336,
      "프레": 10337,
      "방지": 10338,
      "기독": 10339,
      "고기": 10340,
      "어려움": 10341,
      "기타": 10342,
      "아닌데": 10343,
      "바란다": 10344,
      "표시": 10345,
      "문죄": 10346,
      "취지": 10347,
      "고정": 10348,
      "반복": 10349,
      "무료": 10350,
      "##리카": 10351,
      "교과": 10352,
      "무게": 10353,
      "금방": 10354,
      "식사": 10355,
      "마이": 10356,
      "플레이": 10357,
      "지수": 10358,
      "뻔뻔": 10359,
      "는다고": 10360,
      "바랍니다": 10361,
      "끌어": 10362,
      "전력": 10363,
      "45": 10364,
      "창출": 10365,
      "한번": 10366,
      "어른": 10367,
      "완벽": 10368,
      "충전": 10369,
      "명령": 10370,
      "실천": 10371,
      "벗어나": 10372,
      "ㅜㅜ": 10373,
      "리더": 10374,
      "5000": 10375,
      "마저": 10376,
      "무난": 10377,
      "과제": 10378,
      "프로젝트": 10379,
      "어깨": 10380,
      "최순": 10381,
      "가수": 10382,
      "이성": 10383,
      "상당히": 10384,
      "태극": 10385,
      "2007": 10386,
      "바지": 10387,
      "가을": 10388,
      "편의": 10389,
      "실험": 10390,
      "걸렸": 10391,
      "깨문": 10392,
      "서울시": 10393,
      "상호": 10394,
      "동아": 10395,
      "아무것": 10396,
      "유시민": 10397,
      "맨날": 10398,
      "그만큼": 10399,
      "##어도": 10400,
      "컬러": 10401,
      "목사": 10402,
      "취급": 10403,
      "충격": 10404,
      "비행": 10405,
      "전남": 10406,
      "그리스": 10407,
      "했어요": 10408,
      "수수": 10409,
      "국당": 10410,
      "수단": 10411,
      "##니스": 10412,
      "##페인": 10413,
      "옛날": 10414,
      "비싼": 10415,
      "의장": 10416,
      "스러워": 10417,
      "태양": 10418,
      "향해": 10419,
      "나름": 10420,
      "계열": 10421,
      "그린": 10422,
      "통계": 10423,
      "봐요": 10424,
      "케이스": 10425,
      "먼지": 10426,
      "반일": 10427,
      "기계": 10428,
      "비밀": 10429,
      "너무나": 10430,
      "당했": 10431,
      "보단": 10432,
      "당해": 10433,
      "펼쳐": 10434,
      "알리": 10435,
      "실력": 10436,
      "수많": 10437,
      "화학": 10438,
      "청문회": 10439,
      "허용": 10440,
      "확진": 10441,
      "택배": 10442,
      "개입": 10443,
      "나와서": 10444,
      "애국": 10445,
      "내일": 10446,
      "아닙니다": 10447,
      "##어날": 10448,
      "소음": 10449,
      "매번": 10450,
      "세탁": 10451,
      "설정": 10452,
      "움직이": 10453,
      "원내": 10454,
      "51": 10455,
      "데이터": 10456,
      "##시지": 10457,
      "했으나": 10458,
      "수십": 10459,
      "바른": 10460,
      "정은": 10461,
      "##서관": 10462,
      "기독교": 10463,
      "기재": 10464,
      "종북": 10465,
      "학부": 10466,
      "덧붙였": 10467,
      "니깐": 10468,
      "무섭": 10469,
      "매력": 10470,
      "지도자": 10471,
      "애기": 10472,
      "더라고": 10473,
      "배상": 10474,
      "한계": 10475,
      "##다면": 10476,
      "필수": 10477,
      "공약": 10478,
      "박정희": 10479,
      "분리": 10480,
      "##합니다": 10481,
      "구하": 10482,
      "적절": 10483,
      "##텐츠": 10484,
      "미안": 10485,
      "대우": 10486,
      "보건": 10487,
      "실망": 10488,
      "기소": 10489,
      "짱깨": 10490,
      "고서": 10491,
      "절반": 10492,
      "보조": 10493,
      "예수": 10494,
      "커서": 10495,
      "마세요": 10496,
      "백화점": 10497,
      "주사": 10498,
      "비상": 10499,
      "평등": 10500,
      "으므로": 10501,
      "허가": 10502,
      "성분": 10503,
      "저렇게": 10504,
      "형식": 10505,
      "영원": 10506,
      "##나무": 10507,
      "제재": 10508,
      "드립니다": 10509,
      "해양": 10510,
      "뒤집": 10511,
      "2017": 10512,
      "32": 10513,
      "세우": 10514,
      "도덕": 10515,
      "증명": 10516,
      "명예": 10517,
      "시켜야": 10518,
      "##으로": 10519,
      "##메라": 10520,
      "이른": 10521,
      "##너무": 10522,
      "주위": 10523,
      "두려": 10524,
      "정체": 10525,
      "요금": 10526,
      "부품": 10527,
      "여서": 10528,
      "우주": 10529,
      "사무실": 10530,
      "싸우": 10531,
      "살리": 10532,
      "입학": 10533,
      "보관": 10534,
      "##말로": 10535,
      "보냈": 10536,
      "문자": 10537,
      "온갖": 10538,
      "감성": 10539,
      "아동": 10540,
      "레이": 10541,
      "신규": 10542,
      "통해서": 10543,
      "간편": 10544,
      "주인공": 10545,
      "투자자": 10546,
      "길래": 10547,
      "심하": 10548,
      "가까이": 10549,
      "투명": 10550,
      "투쟁": 10551,
      "아까": 10552,
      "##리어": 10553,
      "나선": 10554,
      "투기": 10555,
      "부지": 10556,
      "부상": 10557,
      "흘러": 10558,
      "분열": 10559,
      "클럽": 10560,
      "2018": 10561,
      "들어갔": 10562,
      "이럴": 10563,
      "식당": 10564,
      "긍정": 10565,
      "시선": 10566,
      "번창": 10567,
      "국토": 10568,
      "33": 10569,
      "부여": 10570,
      "연대": 10571,
      "찬성": 10572,
      "모른다": 10573,
      "최선": 10574,
      "실장": 10575,
      "다운": 10576,
      "상처": 10577,
      "범죄자": 10578,
      "유공": 10579,
      "기울": 10580,
      "누군가": 10581,
      "생겨": 10582,
      "다이어": 10583,
      "가까운": 10584,
      "으시": 10585,
      "인재": 10586,
      "##oo": 10587,
      "기여": 10588,
      "장비": 10589,
      "버린": 10590,
      "감옥": 10591,
      "조선족": 10592,
      "집값": 10593,
      "유니": 10594,
      "귀엽": 10595,
      "가만히": 10596,
      "노트": 10597,
      "관객": 10598,
      "너무너무": 10599,
      "먹이": 10600,
      "공천": 10601,
      "KT": 10602,
      "이어지": 10603,
      "흐름": 10604,
      "기구": 10605,
      "그나마": 10606,
      "당사자": 10607,
      "어떠": 10608,
      "배경": 10609,
      "통하": 10610,
      "붙이": 10611,
      "극복": 10612,
      "정하": 10613,
      "살펴보": 10614,
      "예비": 10615,
      "날씨": 10616,
      "이자": 10617,
      "번호": 10618,
      "상대방": 10619,
      "상징": 10620,
      "##50": 10621,
      "끝나": 10622,
      "요인": 10623,
      "디지": 10624,
      "보고서": 10625,
      "대처": 10626,
      "차단": 10627,
      "##러워": 10628,
      "윤석열": 10629,
      "군인": 10630,
      "독자": 10631,
      "논문": 10632,
      "미디어": 10633,
      "균형": 10634,
      "신랑": 10635,
      "대리": 10636,
      "실현": 10637,
      "출마": 10638,
      "##려요": 10639,
      "##화문": 10640,
      "시리즈": 10641,
      "나간": 10642,
      "연습": 10643,
      "##el": 10644,
      "챙기": 10645,
      "대학교": 10646,
      "연출": 10647,
      "언제나": 10648,
      "유공자": 10649,
      "그런지": 10650,
      "별도": 10651,
      "##아치": 10652,
      "심지": 10653,
      "해졌": 10654,
      "##바닥": 10655,
      "보증": 10656,
      "징역": 10657,
      "올렸": 10658,
      "똑같이": 10659,
      "저기": 10660,
      "화이팅": 10661,
      "법안": 10662,
      "적당히": 10663,
      "다이": 10664,
      "##져야": 10665,
      "종이": 10666,
      "스토": 10667,
      "고발": 10668,
      "한지": 10669,
      "회견": 10670,
      "지내": 10671,
      "주체": 10672,
      "시계": 10673,
      "걸쳐": 10674,
      "한나라": 10675,
      "다소": 10676,
      "한나라당": 10677,
      "연구소": 10678,
      "모임": 10679,
      "강아지": 10680,
      "기도": 10681,
      "패션": 10682,
      "수정": 10683,
      "장점": 10684,
      "용기": 10685,
      "복합": 10686,
      "지인": 10687,
      "둘째": 10688,
      "마트": 10689,
      "외치": 10690,
      "진다": 10691,
      "부장": 10692,
      "성비": 10693,
      "자전": 10694,
      "카메라": 10695,
      "##철수": 10696,
      "즐기": 10697,
      "게다가": 10698,
      "빨라요": 10699,
      "기생": 10700,
      "정규": 10701,
      "아무런": 10702,
      "##군요": 10703,
      "##까요": 10704,
      "38": 10705,
      "애초": 10706,
      "수학": 10707,
      "놀이": 10708,
      "##ou": 10709,
      "넘어가": 10710,
      "근본": 10711,
      "##터리": 10712,
      "조용히": 10713,
      "청산": 10714,
      "향상": 10715,
      "매국노": 10716,
      "떨어진": 10717,
      "아가": 10718,
      "광화문": 10719,
      "지상": 10720,
      "반도": 10721,
      "의자": 10722,
      "실질": 10723,
      "방해": 10724,
      "전투": 10725,
      "기에": 10726,
      "검증": 10727,
      "결코": 10728,
      "후회": 10729,
      "콘텐츠": 10730,
      "되게": 10731,
      "월드컵": 10732,
      "주차": 10733,
      "입주": 10734,
      "지지자": 10735,
      "진술": 10736,
      "맞추": 10737,
      "감동": 10738,
      "이중": 10739,
      "이틀": 10740,
      "처먹": 10741,
      "오픈": 10742,
      "##둥이": 10743,
      "숫자": 10744,
      "우파": 10745,
      "고위": 10746,
      "##om": 10747,
      "연예인": 10748,
      "억울": 10749,
      "스트레스": 10750,
      "이내": 10751,
      "내세": 10752,
      "공단": 10753,
      "압박": 10754,
      "##대표": 10755,
      "추구": 10756,
      "어용": 10757,
      "이승": 10758,
      "KBS": 10759,
      "페미": 10760,
      "저러": 10761,
      "현금": 10762,
      "가로": 10763,
      "근로자": 10764,
      "화이트": 10765,
      "김영": 10766,
      "보낸": 10767,
      "한가": 10768,
      "형사": 10769,
      "굳이": 10770,
      "유사": 10771,
      "네여": 10772,
      "안타깝": 10773,
      "고향": 10774,
      "##은이": 10775,
      "태극기": 10776,
      "전원": 10777,
      "발행": 10778,
      "출전": 10779,
      "사업자": 10780,
      "긴장": 10781,
      "이행": 10782,
      "심지어": 10783,
      "어울리": 10784,
      "동맹": 10785,
      "그려": 10786,
      "##바일": 10787,
      "칭찬": 10788,
      "세워": 10789,
      "강의": 10790,
      "애플": 10791,
      "불만": 10792,
      "안철수": 10793,
      "##머리": 10794,
      "고마": 10795,
      "국무": 10796,
      "유가": 10797,
      "짓거리": 10798,
      "모바일": 10799,
      "갖추": 10800,
      "국립": 10801,
      "줘서": 10802,
      "철도": 10803,
      "육성": 10804,
      "상고": 10805,
      "편지": 10806,
      "담배": 10807,
      "임기": 10808,
      "승인": 10809,
      "격리": 10810,
      "꼬라지": 10811,
      "관광객": 10812,
      "답니다": 10813,
      "아름다운": 10814,
      "무너": 10815,
      "남녀": 10816,
      "텔레": 10817,
      "사은": 10818,
      "새벽": 10819,
      "빨랐": 10820,
      "고속": 10821,
      "정비": 10822,
      "에겐": 10823,
      "무릎": 10824,
      "실업": 10825,
      "대안": 10826,
      "에이": 10827,
      "뉴욕": 10828,
      "단위": 10829,
      "무지": 10830,
      "할게요": 10831,
      "##니아": 10832,
      "이웃": 10833,
      "정신병": 10834,
      "아웃": 10835,
      "추정": 10836,
      "성인": 10837,
      "엄청난": 10838,
      "지분": 10839,
      "34": 10840,
      "물리": 10841,
      "특검": 10842,
      "지자": 10843,
      "과장": 10844,
      "2006": 10845,
      "한화": 10846,
      "등등": 10847,
      "사은품": 10848,
      "파괴": 10849,
      "메시지": 10850,
      "완화": 10851,
      "자전거": 10852,
      "그곳": 10853,
      "이놈": 10854,
      "을까요": 10855,
      "공화": 10856,
      "MBC": 10857,
      "해소": 10858,
      "이념": 10859,
      "테이": 10860,
      "##et": 10861,
      "동기": 10862,
      "오리": 10863,
      "##ion": 10864,
      "답변": 10865,
      "출산": 10866,
      "장치": 10867,
      "벌이": 10868,
      "나갔": 10869,
      "나아가": 10870,
      "분명히": 10871,
      "착용감": 10872,
      "다수": 10873,
      "종목": 10874,
      "커버": 10875,
      "권한": 10876,
      "사라지": 10877,
      "이달": 10878,
      "아니면": 10879,
      "공직": 10880,
      "완료": 10881,
      "##리티": 10882,
      "부리": 10883,
      "연계": 10884,
      "물가": 10885,
      "위안부": 10886,
      "자빠": 10887,
      "홍콩": 10888,
      "만난": 10889,
      "유학": 10890,
      "전년": 10891,
      "##페이지": 10892,
      "흡수": 10893,
      "명단": 10894,
      "메이": 10895,
      "크리스": 10896,
      "십시": 10897,
      "슈퍼": 10898,
      "양말": 10899,
      "홈페이지": 10900,
      "방사": 10901,
      "가끔": 10902,
      "못해": 10903,
      "화장품": 10904,
      "폐렴": 10905,
      "경향": 10906,
      "채널": 10907,
      "야지": 10908,
      "네트": 10909,
      "뛰어": 10910,
      "자율": 10911,
      "운용": 10912,
      "##릅니다": 10913,
      "확장": 10914,
      "점검": 10915,
      "소장": 10916,
      "전면": 10917,
      "부처": 10918,
      "점수": 10919,
      "##ing": 10920,
      "정해": 10921,
      "거지": 10922,
      "거품": 10923,
      "코리아": 10924,
      "반발": 10925,
      "감안": 10926,
      "##아내": 10927,
      "도망": 10928,
      "멤버": 10929,
      "캐릭": 10930,
      "폐기": 10931,
      "압수": 10932,
      "본질": 10933,
      "미쳤": 10934,
      "짜증": 10935,
      "원자": 10936,
      "인가요": 10937,
      "철수": 10938,
      "홈런": 10939,
      "저자": 10940,
      "##il": 10941,
      "취득": 10942,
      "##뜨리": 10943,
      "보복": 10944,
      "##ㅠㅠ": 10945,
      "후반": 10946,
      "모집": 10947,
      "이슈": 10948,
      "동료": 10949,
      "##산물": 10950,
      "죄인": 10951,
      "부채": 10952,
      "다섯": 10953,
      "캐릭터": 10954,
      "에스": 10955,
      "배달": 10956,
      "언니": 10957,
      "자영": 10958,
      "55": 10959,
      "매매": 10960,
      "걸린": 10961,
      "오염": 10962,
      "개국": 10963,
      "떠올": 10964,
      "김치": 10965,
      "힘내": 10966,
      "전세": 10967,
      "터지": 10968,
      "왜냐": 10969,
      "안내": 10970,
      "꺼내": 10971,
      "이외": 10972,
      "KB": 10973,
      "적자": 10974,
      "착한": 10975,
      "발라": 10976,
      "새롭": 10977,
      "겨우": 10978,
      "중공": 10979,
      "교육청": 10980,
      "비례": 10981,
      "떨어져": 10982,
      "마침": 10983,
      "귀여워": 10984,
      "더라고요": 10985,
      "시인": 10986,
      "##is": 10987,
      "최소한": 10988,
      "연간": 10989,
      "후원": 10990,
      "기름": 10991,
      "테러": 10992,
      "빨라서": 10993,
      "악마": 10994,
      "예쁜": 10995,
      "대만": 10996,
      "타령": 10997,
      "농업": 10998,
      "선진국": 10999,
      "경상": 11000,
      "자라": 11001,
      "내렸": 11002,
[...]
